  t
  a
h e
i n
r e
 t he
o n
e r
  s
  w
a t
  o
e n
  c
i t
i s
a n
o r
  b
e s
e d
  f
in g
  p
o u
n d
a l
 t o
a r
  m
 o f
  in
  h
  d
â 
a s
i c
 a nd
 t h
l e
o m
i on
l l
  n
en t
  l
s t
v e
  e
l y
  re
r o
  g
 b e
i d
u t
a c
o t
  T
  I
 th at
  on
e t
a y
  S
  is
i m
s e
a m
a d
o w
i g
 f or
â 
  A
v er
c t
u r
l d
  C
  u
 s t
  y
  it
  he
i r
c e
it h
 w h
  M
t er
o l
at ion
 w e
i l
 w ith
 a n
 a s
  B
c h
  r
i ll
  P
er s
 w as
 y ou
k e
  â
e m
he r
i f
a g
 a t
n t
r i
at e
 h a
 s e
  W
  H
o re
 d e
u l
 p ro
p p
 a re
  D
u s
  1
an d
 c om
  R
o p
is t
es t
u m
 T he
  2
r om
 c on
  (
or t
o d
ig h
  F
e w
 e x
a b
a in
â 
 n ot
  N
u n
  v
re s
 ha ve
it y
ou ld
 o r
 b y
o s
t h
  G
an t
 f rom
p e
i ve
 a l
o c
es s
' s
e l
 s u
  L
 th is
 s h
q u
ar t
u st
  le
r a
igh t
  E
i es
 c h
 s a
e ar
ou t
T he
 a b
m ent
al l
re d
ac k
0 0
 â 
 h as
al ly
  J
 p l
g h
i v
 g o
en d
ar d
 h is
o st
  O
om e
ou r
as t
  j
a k
u d
 d o
 the y
e p
 b ut
g e
 w or
 c an
 w ill
 sa id
r ou
t e
  U
  k
ic h
 a ll
o k
a p
  "
 wh o
id e
 t r
i e
t i
i al
an s
 w he
f f
 the ir
am e
 o ut
u re
on g
ic e
p l
 n e
on e
 m ore
in e
i ke
 u p
 m e
ac t
ou s
 a d
c o
ag e
t her
 ab out
at ed
i a
a re
b er
 on e
 we re
 s o
 u s
p t
im e
  K
 2 0
ion s
c c
 h ad
u b
 w ould
 c l
u e
 wh ich
  im
a ke
e ct
 t e
ver y
 a g
i z
t o
in d
s o
 of f
o g
 be en
a u
i re
 com p
p er
ig n
 T h
 u n
ar y
 y ear
 l ike
ac e
ay s
 m an
 e v
 p e
o ok
r y
c l
 con t
o se
 re s
ab le
 S t
as s
i b
 s p
 p er
m er
it e
i p
 o ther
 I n
or d
n e
i le
op le
 20 1
k s
 o ver
n c
 s ome
ic al
 n ew
 al so
 th an
ow n
 a r
 be c
  en
 the m
ou nt
t s
ou gh
a v
an ce
r u
 a pp
 the re
en ce
p ort
 you r
 wh at
 pe ople
f ter
 d is
 whe n
on s
or m
 s c
  qu
 C h
e re
as e
ation s
 an y
 j ust
 it s
  Y
a il
ac h
 t ime
d u
en s
re e
 c o
 he r
  3
res s
 m y
 g et
  if
 k n
l ic
  V
 I t
ou nd
i an
 in to
. â
 t w
ir st
ve l
 wor k
 n o
on d
re at
ct ion
  i
or y
ic k
o b
 o ur
id ent
 p art
or s
s s
w n
  -
an g
 pl ay
ing s
au se
ad e
in t
am p
ar k
at es
  ro
it ion
 p ol
v i
 s he
h ing
e c
 a fter
, â
 f irst
 c ould
 h ow
 1 9
 H e
i ld
 h im
a w
' t
 a cc
ent s
 on ly
ul t
 re c
 f e
 p o
 at t
he d
 tw o
o ve
r it
o v
 p re
nd er
n g
 p r
is h
 com m
 s pe
e f
â 
 a ct
 b l
w e
n s
in k
. "
 be t
f orm
er v
ver s
ic t
 b ack
 m ost
o od
f t
c k
 â 
 a m
o y
 d id
if f
 ag ain
  4
at er
d ay
en c
 w ant
u al
rou nd
p r
u ll
se l
 â 
. .
 bec ause
l i
 n ow
 year s
m an
ub lic
 ev en
  $
 kn ow
a i
 u nder
 d es
 se e
 W e
 ad d
, "
 b u
an c
is s
o ld
 se c
 e very
ter n
u ch
t he
ur n
  5
rou gh
 su pp
 m ake
pe ct
 the se
it t
oc k
I n
 whe re
ver n
 con s
 e m
j ect
o ll
 U n
p h
l u
T h
is e
 l ook
d e
 A nd
ation al
 in v
os s
x t
 w ay
 be ing
r on
 r ight
 de c
ro w
 m ay
 the n
 man y
  [
le ct
 d iff
as on
 c all
um p
 B ut
as ed
 d on
) .
i ous
 de f
mer ic
ak ing
it ed
at h
n in
 sh ould
 T r
 s y
b le
 s ay
 p res
t y
s u
 l ast
 th ose
  very
ur ing
 m uch
ot her
ow er
 in c
 ne ed
 Th is
 im p
re n
l es
if ic
it ies
 sh ow
 we ll
 re m
ot h
 p h
 W h
 c ount
g r
al s
g et
f ore
 do es
 d own
 o wn
 u se
 be l
u nd
 re l
at ive
- -
 go vern
 re g
ic s
 l ong
 A meric
u p
 f l
in ce
i ed
 be fore
  end
 as s
ter s
om et
w ard
 m on
v en
 st art
 re port
  ke
an ge
 N ew
t en
n ing
 a c
at ing
 th ink
d in
 te am
 m ade
e e
 th rough
if e
i o
ol og
 b r
i ly
) ,
 su ch
en er
c on
t ing
 2 00
b e
 s m
ib le
 go ing
ers on
 in d
 wor ld
c om
 st ud
he n
 go od
m s
 he l
 f in
0 00
I t
u ally
 we e
 e ff
ist s
 su b
g an
 again st
f ul
 s et
  6
or k
 s ur
m e
 g u
y s
it s
 e ar
il ity
i x
 pro v
st em
 govern ment
 st ill
rou p
 wh ile
ill ion
 hel p
 g ame
 le ad
we en
W e
a x
c i
ar s
im es
 s ays
al k
is m
an k
 pro du
em ent
er t
 s im
sel f
t a
 t ake
 ch ar
 c ol
 s ame
t r
â 
ar ch
 bet ween
 th ough
 st r
oll ow
 off ic
 m in
 diff ere
t in
u c
u g
a ir
 o p
l and
 n um
n er
 o b
 s ign
m en
 l aw
us s
re ad
 c r
o ol
 in st
w ay
 v i
at ch
h ip
he s
am es
an y
 s omet
vel op
e ver
 t er
  ent
 in ter
 f ound
a h
  ed
 r un
 th ree
 m em
 a round
e ll
 he re
c ess
at her
 R e
  .
 1 0
 m ed
 us ed
u res
v ed
 tr ans
 Y ou
 re al
a z
 sy stem
 re ally
 A r
 ex p
 m od
l ed
ri b
 g roup
ou se
 supp ort
c ent
n v
in s
  7
o ot
d i
p le
t on
al e
n a
iv es
 c ar
re st
 g r
e x
a ve
 h and
 st ate
 p ublic
 spe c
ment s
 c our
 g reat
y ing
 A l
 h igh
. [
 c ur
 f am
al th
m in
 ha pp
 C om
 f act
 in s
g g
 The y
 Tr ump
 w om
 ex per
 I s
 c ap
ire ct
 b oth
 d ay
w h
 re ad
ic es
ce pt
v ing
ut h
d er
  0
 d uring
 s l
cl ud
 A s
W h
 mon th
u es
 S h
in es
 s erv
 con f
 de velop
 d et
 b ig
  8
v es
is ion
 f ollow
 c re
 p erson
 to ld
 C l
 s ince
 s er
 wee k
r ic
ak es
 w ar
m ed
 f ew
 l ar
ord ing
ort h
le ar
i vers
 le g
 c ent
a j
d en
f e
 pol it
en se
as h
ic ally
c es
 l ot
ut ion
r at
 bel ie
et s
 g ener
 to o
  9
 re t
 o pp
g er
at a
 in te
c ed
b ers
re nt
 f il
 res p
 p ut
2 0
 I f
 ex t
 an other
 somet hing
o h
iz ed
ch ool
 differe nt
e a
 l oc
ut e
 ex pl
n ce
 s oc
n ed
 p ower
  '
 D e
 comm un
 p ass
 l ife
 pl an
od y
 in t
re t
 th ings
 re le
c er
 f ar
 ar t
th ing
 c he
 c amp
 m et
 b o
 v ot
n n
 st at
ag es
Th is
 ch ild
 p oss
 as k
 m ight
 e ach
ro ss
iz e
 L e
 ne ver
ant s
 he ad
 ne xt
vi ew
 sec ond
 m ark
 qu est
 ad v
ie ld
i ence
 F or
 po int
 com e
 g ot
 cont in
 op en
 b est
ul ar
 all ow
g ed
 â 
 Th at
 R ep
 se em
itt le
or n
m a
 p ost
i et
 F r
 fe el
 U S
it al
 P ro
gr am
 per cent
i er
s c
 d irect
 in f
i k
 p ri
 cont ro
i ent
 inv est
os ed
 h ome
 f ind
at t
 h ard
 m illion
 c are
 re f
 comp le
ch n
 with out
 im port
ate ly
g y
 d em
con om
in a
l ess
  ide
 pro ble
n ess
 in form
 bu ild
 to p
 t ri
am a
 num ber
 count ry
 S o
a im
 de p
 a v
one y
 t ra
 pl ace
 d ist
 in clud
t t
r al
 st and
ab ly
 f our
ri end
u ro
 bet ter
 rec ent
B ut
 h um
 m ov
 le t
 p a
w ays
 se ason
 l ess
1 0
 c ou
 l ittle
 be h
 app ro
 b ro
 e l
 g l
 call ed
 m il
is hed
 c ase
ent ion
 t urn
e ad
 p op
c u
  Z
 an n
is ed
 m ove
 att ack
od e
s i
p re
 le ft
 ke ep
 f ull
l ing
in ess
 did n
 b us
 f un
aj or
_ _
 eff ect
ain s
 pro gram
 us ing
 B l
l ine
 v al
H e
in al
 p ay
vi ous
at ter
ain ed
 t est
pp ed
 pol ice
s h
 w rit
 e conom
 n ear
 d ata
 for m
 new s
t ed
 p os
u i
r t
 le vel
 Americ an
iv ing
 sm all
read y
 The re
enc y
 dis c
 m ar
 l ist
b r
olog y
at ure
 s chool
id ed
' re
 e as
 I nd
 ch ange
e g
ir d
e red
 wom en
 cur rent
 re ce
 p rom
pl oy
 h ist
 d ri
  =
 pres ident
 comp any
in ed
r act
us ed
re en
 re st
 al ready
 u nt
s on
 Un ited
u ck
 t y
 wh y
id er
 m oney
 - -
w it
 s ol
 al ways
 ex pect
 te chn
 l ater
 H ow
 offic ial
 b re
b s
g es
  Q
ru ct
 e le
 b ook
 P h
ivers ity
 th ing
 cl ass
a ign
 pro ject
as es
 cl aim
st and
 inform ation
 or gan
 j ob
r ation
 t alk
 A n
at or
ard s
p or
 des ign
 ch ang
 st ory
 m ajor
 ab le
 re se
 he alth
 p ast
 f ree
 S he
 d r
 o per
 v is
a red
 M ar
iv en
 pro f
 a way
 m ust
 c ity
 p ur
amp le
ou th
he re
ert ain
o x
 happ en
i or
uth or
 1 8
 import ant
ac y
 k ill
ur al
 o ld
 s k
 pro cess
e q
 c or
ur y
ne y
 does n
 A d
 c lear
 le ast
iss ion
 O b
 g row
r ist
ur ity
end ing
 ed it
 v ar
are nt
 c ost
 G o
 d ays
 te ll
 camp aign
 1 2
 c ame
 a ff
 m en
 st re
 h op
res ident
 en ough
 vi ew
 k ind
o ad
5 0
 m aking
 lar ge
 C on
 rec ord
 J oh
le y
us h
 f riend
 fam ily
 S p
ou nc
i ans
 pol ic
s ide
er al
 e lect
d ed
 inc re
 s it
b y
 t ax
r or
g in
if ied
iv ed
cc ess
 unt il
 polit ical
is ing
 de al
 v ide
al ity
ot t
ri es
A s
au gh
 work ing
 Rep ublic
  ve
al f
 to ok
I f
 l ine
er n
el s
 f r
 a ir
 b as
 Com m
f i
 bec ome
 act ually
is ter
oc rat
 me an
 f und
1 9
 r a
w are
ra ph
 w on
S t
 for mer
 of ten
l ar
  es
 E uro
 f ore
 in tern
ic le
on y
 g ive
 w in
 acc ording
 S c
 e ver
m ost
y ear
 pro te
 de b
r s
 P l
an e
 p at
 g ames
is on
n f
 or der
1 1
m p
  est
pt ion
 t imes
 R uss
 wor d
 n ame
 se ver
 A ll
 D em
it her
p s
ut ure
 inte rest
id es
 b it
 19 9
 M c
u red
 f ac
 w r
 mark et
 l a
 S y
 char ac
 ret urn
 do ing
 app ear
E R
 M ay
â ¦
 play ers
 n ight
 le ar
 O r
m ber
ap s
 to day
 ear ly
ak en
 1 5
The re
 se en
/ /
 ha ving
  ,
 child ren
an n
 p ot
 ev ent
 med ia
 bus iness
 soc ial
ar l
ar ing
 P resident
 c rit
 sever al
 contro l
 per form
id ence
 hum an
i ally
 de v
 me et
 mil it
 w ent
 is su
art ment
 f ive
 you ng
 A t
i qu
 e qu
 quest ion
 su re
 o cc
 like ly
a pp
 mem bers
em ber
c r
c hed
 c ertain
un e
and s
 Y ork
 w ater
 m ain
 ex ample
ra ft
 ar g
 d one
 C ol
  vers
 c a
n es
l f
 St ates
 Euro pe
end ed
 al ong
 sh ort
 s ing
en e
 month s
 1 1
le t
 h our
ent ial
b all
 pro p
or ies
ot s
A nd
iz ation
 se x
i um
st er
 man ag
 with in
ion al
il ar
em pt
 cour se
 f ight
m b
 am ong
s ue
im ate
 act iv
le g
 on ce
ub l
ag ue
 f uture
 poss ible
 Ob ama
re w
 ch o
 res ult
 under stand
ul ation
  ]
 su ccess
i ver
k in
ort un
 p ar
um ent
 N o
 me ans
 vi ol
 proble m
 a uthor
it ive
in ts
g s
m y
ail able
oc i
w ork
 kn own
 produ ct
iv id
 though t
 s ide
 y et
 O n
 ac ross
p ro
 loc al
 h old
gg est
 f ail
 W hen
l er
 commun ity
ver t
 m id
 re ason
our n
 pri v
 B r
 su ggest
  &
1 2
 m akes
n i
ver age
at s
 201 6
â 
C o
 n on
 or ig
 ask ed
get her
b ack
ed eral
 report ed
Y ou
ens ive
 g iven
or ld
 St ate
i red
 str ong
 pro b
 m us
 other s
b ook
it ing
 belie ve
 vide o
n ot
all en
. ..
 get ting
 H ouse
anc es
 M r
i ber
h a
 B e
ur s
er ing
 Un iversity
o ber
 3 0
  ident
 c ut
 l im
on es
iet y
3 0
on a
 b en
ul ts
ur ther
o f
 s our
al d
 T e
  X
' ve
 n et
 C o
 Ch rist
a ff
. ,
am s
 con cer
 cl ose
 start ed
ron t
 l ight
as hing
 av ailable
 de ath
 n ational
s a
in c
 h ig
 b ased
 is sue
F or
 Dem ocrat
 ind ust
m ing
 follow ing
ro p
 acc ount
 l ow
 l and
 em ploy
 l ove
 201 5
v ent
  #
 hist ory
 ag o
sel ves
ort s
 m om
re m
as ter
 part y
 S en
ore d
 M in
 ser ies
 C ent
u nt
 com es
o int
g o
u ff
 invest ig
 tr ying
u ly
 al most
 to gether
ut es
g i
A T
 Americ a
e b
 ide a
 inv ol
 f oc
h i
 des c
ie f
g ress
her s
 is n
l a
re ed
 1 6
p ly
 O ne
 tr ad
 Wh at
th ough
 pr act
 add ed
 imp ro
 exper ience
1 5
 h alf
b o
ust om
g est
 col le
wit ter
 201 4
int on
 r ul
ot e
 look ing
 s ix
ivid ual
 l ive
 any thing
f o
 are a
 acc ess
 comple te
t u
er man
min ist
 m iss
ra el
 B ro
an a
 f av
un ch
 r is
ail s
 add ition
 pres ent
 C ar
 an al
 say ing
 t ar
ra w
 v ict
 pro t
I N
 S e
 b ad
 t aken
on t
ow s
ot o
 ent ire
 E x
am ent
 b ill
 comp et
 sim ilar
 T o
 beh ind
u ge
' m
in ation
 a ut
 W ar
 tr y
 milit ary
  z
 en g
 cour t
g n
Wh at
 1 4
 sec urity
ward s
 f ace
 P ol
u se
 pro per
  er
r v
 disc uss
p ar
du ct
e v
 C an
 fil m
 th reat
 sing le
 stud y
 m or
 to t
 r ather
 P r
 ind ividual
s es
 B rit
  Â
 F l
 qu ick
ll ing
at ors
 S ec
am ed
u ed
 N orth
 p ubl
 pre vious
 polic y
ap er
 m ind
id s
  /
al es
 Joh n
 want ed
* *
g ing
 f ood
 some one
 s um
pp ing
 D ep
 bl ack
ff ic
  |
O n
 spec ial
ic ip
 play er
 ke y
 1 3
 D on
ci ally
 comp an
 s w
S o
 c ult
 1 7
 E ng
ro te
 G r
m i
 att empt
s in
 N ational
 t aking
W hen
O N
if y
 pre t
  :
r p
 C al
n k
: //
 el se
 b ody
ep t
ab ility
ol ution
 prob ably
. )
1 6
 not hing
 sp ace
ashing ton
f or
 re co
 rese arch
r ict
ar r
 W orld
1 4
 Cl inton
 C ity
d le
 com ing
 f oot
li er
 po ints
R E
 Is rael
 how ever
 c reat
ul ti
 sign ific
 re pl
 A ust
 dec ision
 ben ef
 e ither
 re du
A d
os p
 m ass
 s us
 tar get
h r
 fe at
ac es
Th at
ic ult
ir l
 con st
 ex ist
ad a
 201 3
p a
 h it
 right s
 serv ice
I S
 d oc
 w rote
 f urther
 f ire
w w
 h ouse
c hes
 f ig
 th ird
 prote ct
ull y
 ch allen
 st op
a pe
p ut
 cre ate
 f ield
 p ick
A N
en n
 me as
 W ith
 issu es
 st ep
A n
ri ed
 who le
 rel ations
 seem s
 com b
o on
  )
 compan ies
 de cl
pe cially
s w
 d ue
 ex ec
 every thing
 c and
ive ly
 f ederal
o ff
itt ed
 st ates
 ro om
ar m
 w atch
 J an
1 3
 c ustom
 lead ers
 How ever
p ite
 W ashington
 D av
an ks
re me
att le
am er
 ro le
 en c
 e y
iv il
 s ound
 d am
 official s
 se lf
 st ri
 pos ition
le ment
 201 2
id ay
 rele ased
 w a
he ad
 S u
 be gan
 In st
at ic
 A pp
ag ed
 S outh
 o pt
 stud ents
 t reat
 charac ter
 an ti
 m atter
Ã ©
 en er
o ke
ob al
el t
 out side
 f ront
 d ou
l am
ib ility
 develop ment
 stat ement
 him self
er y
 201 7
 ab ove
 fin al
ad es
 bre ak
l ike
 am ount
 prov ide
l im
end er
 hour s
 it self
 them selves
 off ice
 a ction
 G e
 f all
 bec ame
 19 8
n ter
 contin ue
 gener al
i od
 count ries
 com pl
 G u
 1 00
 g un
se c
 im m
 ne g
 add ress
 2 5
 In tern
enc es
ac ed
 in it
 tr ue
 spec ific
 d ru
d o
u ation
 signific ant
ar ter
 sim ply
 cons ider
l ish
C h
ounc ed
 P art
 B ar
l t
pl ay
 A ss
 was n
' ll
c he
ace book
as k
 r ad
un g
 d i
 diff icult
 g round
ent ly
o id
 su per
 run ning
 J ust
 ev idence
l in
 ty p
 S te
 ad minist
og raph
B C
 c op
1 7
 vers ion
og le
 t re
 build ing
 Ch ina
 need s
re am
a ult
 group s
en g
 resp ons
il t
 comm on
 show s
r ight
 every one
ang u
 prof ess
qu est
 b all
 wom an
 G erman
 M an
on m
 A m
 bel ow
e al
 t em
b ody
 d est
 mus ic
 m ulti
s y
ourn al
s p
 rele ase
 pret ty
 a p
A R
if t
g re
a ul
 includ e
 sa w
 de ep
 I m
 A b
 l ab
 inter view
 play ed
1 8
 cap t
 qu ite
il i
 indust ry
 l o
 ener gy
 play ing
um b
 5 0
 cand id
 m ag
 s ense
 ph ys
 l ate
iv al
 wh ite
 H is
 d om
 friend s
 leg al
 in j
it te
 g en
 b ar
 an im
y le
 A fter
e le
H ow
 m ot
A S
o o
 inst ead
y n
 ab s
 b illion
 l ost
 es pecially
om m
 val ue
v al
 W est
 M us
os ing
 h ost
or ing
 h om
 wee ks
cc ording
 N ot
 for ward
at i
o e
 ele ction
 recent ly
 p le
 j ud
 tr ack
n ow
r ing
 vot e
 ob ject
 E d
 R es
 T witter
 per iod
 chang es
 opp ortun
 Wh ite
 O ct
 New s
 long er
 A f
 so on
 s ite
  {
ac hed
 c ir
ri pt
h od
 sh oot
 econom ic
med i
 e p
iqu e
ist ic
itt ing
 mom ent
 p ie
 W ill
 che ck
 ser ious
 M ed
 m ess
 t it
g a
h ood
 pot ential
 M arch
 bl ock
 wr ong
 p arent
n ect
k y
 Dep artment
 hig her
op h
 c red
 on line
 S ept
 foc us
 2 4
ere nce
on se
anc ial
 M y
ke y
 wor ks
 rel ig
 he ld
 sh are
2 5
ir t
 p ress
 p red
c ial
id ing
 w alk
 de l
 l ed
t ime
= =
 st ay
 The se
 we bs
at ur
 st ru
 go al
 s en
 Republic an
ar c
 word s
 A ug
A l
 so ld
 D r
 re view
 res ults
 serv ices
The y
 c ode
b it
 M ich
or at
 fun ction
 a ud
 tot al
 Sy ri
h t
g u
 art icle
 a ge
 app lic
 min utes
ud e
i j
ur ch
 pop ular
 any one
u ary
 re v
 J une
 det er
as ons
il ities
 person al
R e
 ear lier
 fav or
h aps
 exp ress
h am
 de ad
 an sw
 comp ut
 up d
E S
 D o
pr il
 cont ract
 v ol
 r ate
 br ing
 techn ology
f ect
 res pect
ap an
ang er
ate g
 201 1
 pr im
 rece ived
 w ind
 expect ed
 c le
 h y
 d en
y l
P h
end s
ra p
 cre ated
 sur pr
 re ve
b l
 J uly
 proble ms
 S m
 w ays
i ents
d on
 p ort
he l
 priv ate
u el
f er
 sc ient
 incre ase
r in
 com ment
 ann ounced
her n
 ne cess
 can not
 eas y
 re d
 sh ot
 quest ions
re et
 for ce
is l
ap t
 imp act
6 0
ater ial
 j o
itte e
 p ack
ic ro
 f ir
  +
 F acebook
 M ond
pl es
 l angu
 hop e
e ch
 ac cept
 invol ved
 G od
ill s
av ing
 Aust ral
 P e
re l
 ris k
 ed uc
om b
p o
ues day
 exec ut
 mod el
 e t
it er
 d iv
it iz
c le
 ex act
 spe ak
 st aff
 c ivil
al t
 near ly
n ers
rib ut
ll ed
our t
ok es
 orig inal
b or
 c ases
 19 7
 relations hip
 ter ror
 A ct
 Go ogle
 le ave
 Fr iday
 resp onse
 ins ide
  <
r is
T o
 ty pe
 cont ent
u le
 f ans
 A pril
A t
 C ong
 P ar
r ay
o le
s is
 a verage
 ar rest
 intern ational
 bro ad
 us ers
 C ount
 ph ot
act ion
 c ell
 c al
 l iving
 w orth
 so ft
 n ation
 kill ed
 report s
 201 0
ã 
 bec om
T r
ve red
 sour ce
 Mond ay
 R ed
  ur
 T uesday
 sub ject
et er
c ast
 work ed
 est ab
 im medi
E N
 he art
 resp ond
 gl obal
 ass oci
ro du
 cl ub
 Americ ans
os ition
 re quest
 b ase
 ch ance
 o il
r c
 ab ility
 t akes
at ural
um e
ct or
 P al
rough t
 pr ice
 we ap
 J apan
 direct or
 work ers
 ter ms
 ro ad
 publ ished
 N e
it es
 Wh ile
 ph one
 fin ancial
 t ou
olog ical
 he av
 dec ided
O R
 Russ ia
m on
re g
 m other
h ou
 W ed
 l ack
 P er
ove mber
 s qu
 g irl
 4 0
 st ore
 g ave
is es
 co ll
g l
 bu y
 col lect
 Cal if
 happen ed
 l og
an i
op s
a el
 N ow
ip s
" .
 e mer
a f
 dis co
j oy
 cap ital
 fore ign
 ad m
 l at
 current ly
 I r
b ased
 S ome
 go es
 d ro
ov ed
 Ge or
 sit uation
 off er
 who se
  @
 t al
 l ives
 p ain
4 0
 S an
 m aterial
 B y
ough t
 aff ect
a ut
 pl ans
nes day
n o
l ig
um ents
 ar ri
 mem ber
 part icip
 F eb
urs day
 Cong ress
 s ent
 reco gn
 turn ed
 met hod
 ev ents
 m is
 Jan uary
 net work
 p ict
O ne
 team s
 b ank
 meet ing
 H ill
 S und
 inf lu
ight s
es e
 n orm
 sim ple
 Is lam
z e
  â
 h uge
 Sept ember
 reg ard
 are as
it ions
 T V
ord er
 su ff
 cou ple
 appro ach
 care er
 Af ric
vert is
" ,
l oad
 de li
 perform ance
 r ace
 p age
tt p
 N ovember
 to ol
 Dav id
 ex c
 f elt
ag ing
m o
 quick ly
 num bers
S h
 2 1
le x
 em ail
ai ly
in o
b u
r ain
 H ar
ic les
 administ ration
 h on
f ully
 Wed nesday
L o
 vict im
 P aul
 v ia
 impro ve
ch ie
iz ing
 f em
 p ull
 A ng
 te le
e es
w here
 2 2
 Europe an
 re pe
 G l
 f re
 Th ursday
 p ers
orn ia
 l oss
 f ather
re ct
 bu ilt
 th ous
Â ­
et y
 produ ction
 b oy
 d ig
rib ed
 he ard
a ur
 sec ret
 econom y
 Aug ust
 tr ade
 E l
 M e
 webs ite
 co ver
 reve al
 bo ard
 m at
 r ound
 w ide
 m atch
A L
 allow ed
 sp ent
 hand s
 C ourt
 tra vel
 l ower
â .
 includ ed
k ing
ce mber
 b i
 Oct ober
 po ll
ruct ure
 def in
 ne igh
 leg isl
 beh av
us es
f ace
 trad ition
ou d
 S ch
 kn ew
 want s
st r
 to wn
er c
 se par
 Brit ish
 vis it
 c y
 Can ada
 per fect
 get s
  ill
 move ment
 st e
 tri ed
 c ause
  }
 for ces
 Sund ay
 var ious
W ith
A fter
ar i
ro wn
 att ention
 en joy
] [
 b ud
 ve h
 v o
? â
 pop ulation
 U K
 re ach
 look s
is c
 2 3
 Calif ornia
ur ns
 b rought
 K ore
 b an
 f ear
he t
) ;
 I S
ar ily
E D
ib ly
 m ention
 ob s
es tern
 Russ ian
 mor ning
 set t
9 9
' d
 ind ic
 f air
 grow th
und red
 pro gress
 fe ll
se qu
y ond
 s ong
all ed
h old
 S w
ide red
r d
ra z
A C
ig ence
 s ize
2 00
 De cember
ident s
 cont act
 dem and
Wh ile
 im age
 Bl ack
O S
 lead er
ec ause
 rul es
 l iber
at ives
en ed
en ing
 conf ir
 se arch
 h ot
 P ost
 r ac
 St reet
  ess
 Q u
ak er
 c itiz
ess ion
 up on
 stru gg
i am
 lat est
s et
f ield
U S
 feat ures
 co ach
 al le
ar th
 P ark
 f ast
 talk ing
 J ew
c ome
d own
k n
 reg ular
 Sen ate
 w ond
I T
 cons idered
ra q
 spe ed
 level s
led ge
2 2
 T imes
in ks
 Count y
w o
 investig ation
 con duct
 Part y
 int rodu
et h
 T ex
 cons um
 med ical
im ately
 a chie
 langu age
atur day
op e
 m ach
k i
 s ort
 crit ic
 K ing
 Cent er
 Ind ia
 p aper
u f
 A nt
I C
 200 8
ys is
ar ies
 parent s
w i
ct ions
 sex ual
 system s
 pri or
pp er
 P at
il le
c ul
 do ll
 writ ten
c in
er o
 sa fe
 bo x
 sp okes
om p
ig r
 te xt
 doc ument
 he ar
8 0
ific ation
 d raw
at form
v a
 s on
 Mus lim
 u nd
ru ary
 eff ort
 job s
m at
c a
em ents
 se ven
 ext reme
 pre vent
ea red
 prot est
 lear n
 l ink
 reg ul
 . ..
 sl ow
 r ange
 viol ence
  *
 e ight
ro om
 I raq
 b ur
it ch
O P
 b ott
 M ark
 sur ve
 complete ly
 200 9
ic o
 mess age
 res our
 con nect
S he
sy ch
id a
f ort
anc ed
reed om
 opportun ity
2 4
 fl o
 E m
 cl imate
 major ity
ent al
e k
 dou b
 des pite
 j ournal
 ob vious
 claim s
 sc reen
v in
 answ er
 soc iety
ib r
 car ry
ent ially
 gu y
 ext ra
er ve
is ions
 attack s
 A g
 big gest
vertis ement
o ver
ill ed
 exact ly
 pa id
 E ast
un k
 M ore
 exper i
  ir
 are n
am ing
 rem ain
uc lear
id ge
ens ion
 ag re
 offic ers
 h undred
 qu arter
 dru g
ren ch
 ex cept
 mod ern
 M on
 t able
ines e
 pract ice
 mid dle
 N et
 2 7
N o
in ally
 certain ly
 S aturday
 st ories
os es
 product s
 g as
 sur v
 look ed
 somet imes
 Don ald
 hist or
 st uff
 r out
 sc ience
 fin ally
 ex am
 def ense
 n atural
C a
A M
 us er
 sum mer
 mov ie
 ter m
 bl ood
 a w
 cr im
m it
 p en
 commun ic
 chang ed
ic ks
 S pe
 lead ing
 desc ribed
ut ions
 l ay
 on es
v ision
av es
r ast
 Feb ruary
 pr ison
 det ails
h o
 start ing
 qu ality
 occ ur
c ing
 c ross
ly ing
 st ar
i ant
 show ed
 n amed
 g iving
r m
 rem ains
 reg ion
 c ard
 R om
 prov ided
 cost s
l o
 S and
 S oc
t an
 dam age
 m ob
 d anger
 T H
 Mc C
 T ur
 ch ief
 sa f
 p an
 po or
h ib
ak ers
i en
 educ ation
augh t
 multi ple
ous ly
 inte ll
 contin ued
 p ath
 grow ing
 m ur
 I nt
 C or
 K e
s er
 M or
 part s
 2 6
 bud get
 writ ing
 2 8
 com ments
 ass ist
 Republic ans
 im ag
 pur p
2 3
 wr ite
 f ix
 it em
 pur ch
 d ied
 Democrat ic
 E ven
F L
ag o
co in
 would n
 read y
 incre ased
 cult ure
 imp lement
ab les
 eff orts
osp ital
 vot ers
z z
 m ill
 read ing
 sp ot
 us ually
 call s
 f ile
cl us
 effect s
erv ative
he st
 per haps
ar a
al y
 G ener
 al one
 law s
il es
i ers
b ed
 al though
 to wards
 cons ist
 Le ague
 B ill
 Tex as
 gu ys
 stand ard
 D es
s m
 c ele
 s ens
 be yond
 direct ly
 Mich ael
 Ch inese
 pl atform
 se lect
 ( @
an ch
 h ous
u k
 spe ech
 real ity
it ute
 c amer
ict ion
 k ids
ur t
 J ames
 av oid
it or
 foot ball
us ing
 stud ent
B I
 en s
 could n
b an
 un f
 F irst
re c
 immedi ately
 includ es
 ro b
 cho ice
 sc ene
 comple x
 cent er
 rec omm
 addition al
op er
d d
 w ife
 cl os
is hing
 t ro
 rese arc
 u lt
 ep is
f ord
er g
 Min ister
A ll
 design ed
 rem ember
 saf ety
 soft ware
 s le
 Ind ian
 g one
ic a
I m
o i
 C he
 c ast
 se ll
 t en
 to ward
w ise
b i
 ag ency
  il
 offic er
 fig ure
 eng ine
 pie ce
 J ack
 deb ate
 sub st
  ver
st on
ast ic
 thous ands
air s
 J e
ag on
ad em
 op in
 a head
u x
f r
N ow
 rel ative
 O ff
im um
ir th
 let ter
 rece ive
y an
  Ð
 bl og
et t
 in n
il ies
amp ions
  >
p ir
 mov ed
 la unch
r im
 appear s
 s il
 o ption
 pass ed
  ut
 Pl ay
 re p
 st age
 6 0
om en
 cle an
b ur
ro y
ol ute
 I I
ate ver
2 7
O T
 proper ty
 help ed
 tw e
 S erv
 dri ve
 App le
 alle ged
 br ain
n y
j ust
it ation
 t our
i pe
 ro ck
  x
 L ab
 â ¦
port s
 mean ing
id ers
 G reen
 Ass oci
 sus pect
 B o
 R ich
 d ate
 Democrat s
 mov ing
augh ter
ou nce
 sc ore
ru pt
 organ ization
 st ra
ri be
 tou ch
 d ark
ce ed
ou l
? "
  ign
 re asons
 The n
 c row
 p ark
 n uclear
 my self
 happ y
 dev ice
 h or
 differe nce
ri ef
 comm and
 may be
A D
 n ature
 cop y
 fail ed
n ew
 V al
 charac ters
 comput er
 s at
m ore
ac hes
at ory
 tit le
 a im
 M art
 comp ared
 w all
 S im
 b attle
ock ed
 le ague
m ar
g round
 colle ge
ut y
 cou nter
 ey es
k en
 sh own
 cent ury
 Eng lish
 power ful
 relig ious
 D ay
 b al
r r
 lim ited
 y es
 A ir
3 5
 pos itive
 for ced
 sc he
 necess ary
w ood
 candid ate
2 6
 St ar
 s al
 book s
f l
 n om
B e
 D is
A P
 tr ust
 lar gest
 F rench
 H er
4 5
ain t
 ar ch
 conf erence
 R ober
 not e
 anal ysis
 H ere
 sp ending
 president ial
 con cept
uf act
 citiz ens
 b and
 O f
 school s
h l
 be gin
c raft
ig ration
 Syri a
or ks
M y
 th row
 me ant
 a ware
 execut ive
 event ually
ven ue
 phys ical
 follow ed
ent y
in ated
 fe ature
 s n
 treat ment
 C ons
 stre ng
 m ix
 h ar
 2 9
or ney
 cor rect
 fir m
d om
 W ind
 gr ad
 eas ily
re a
 p us
 aut om
 co ol
 dis p
 B en
 19 6
 c at
b and
 fam ilies
 act ions
 over all
g en
 M ex
 allow s
 il leg
 g ives
et ro
 fe ed
 Â £
 s om
 f a
B y
) :
 sus p
 your self
 cele br
 enc our
 Go vern
b um
 app eared
 det ail
 inc ome
ub e
 sm art
 T or
 sign ed
ch an
 dem on
 ide as
 cent ral
 sen ior
le ase
Ad vertisement
 fre qu
 weap ons
I D
N ew
 dis play
 Su per
 S a
 prom ot
 n ice
ounc il
 cred it
 dec ades
 polit ics
 p sych
 cr ime
O M
E C
 us es
 imp ress
2 8
 H am
 do or
 dis e
 un ique
 s we
 Intern ational
 al tern
A ccording
 s ales
E T
 develop ed
 custom ers
 benef its
I s
2 9
D on
 conf lic
 rel ated
ur ance
z a
te xt
y a
 m ist
 S chool
 not ed
 Austral ia
ot i
 tr uth
b ox
 B el
 E U
 go als
 individual s
 J er
 S ci
 exper im
 char ge
 be aut
 E arth
 contin ues
 Un ion
 Ar ab
 r ap
on ents
 obs erv
qu e
 challen ge
 M id
 st o
 app arent
2 1
 Ang el
 f it
 Sm ith
 project s
 pe ace
 meas ure
le ction
il ed
 L a
 Pol ice
 l ic
 intell igence
 previous ly
 German y
 r ule
 full y
 manag er
enc ed
 Christ ian
 l if
M e
 r ates
 adv ant
 bro ther
 exp and
 clear ly
ch ange
 l ines
 success ful
 high ly
 re form
 inst it
 lar ger
 es c
 sp read
 seem ed
 C ouncil
ound s
 stra ight
ri age
 anal y
 min or
 Geor ge
 program s
 d raft
 inc ident
 resour ces
I A
 great er
ber g
 prim ary
ic ed
ant ly
 T om
 know ledge
 stud ies
wh ile
ad o
 we b
 sa ve
 h i
 ke pt
 att ract
7 0
 Fl or
 em ot
ate gy
P ro
 col or
 fe et
 r are
 re ached
se y
p art
sec ut
n et
ol ic
 crim inal
bo ard
c at
 Intern et
 ar m
od ay
 em b
 favor ite
in y
 t rou
 pl aces
ot a
 Com p
re nc
 pre c
w ide
 man ufact
 la un
S ome
r am
 an g
 s end
ic it
 dis app
S c
ow ers
 D ef
 supp or
 know s
 shoot ing
e ed
 activ ity
in i
 sour ces
 norm al
ic ago
ter m
ns on
 fight ing
 stat us
 r ise
 in de
 own ers
b on
 f ine
 vo ice
 ca used
oc ks
 claim ed
 f an
 en em
enc ies
 S er
 l iter
 R ob
E O
 Gener al
 opt ions
 200 7
res h
 un c
se e
 sp end
eng th
 M o
on ent
 c ities
 M ac
 U p
 organ iz
ar ian
 end ed
 var i
 G old
 Ir an
 researc hers
d a
 call ing
d m
v ille
 sh ut
 ref lect
 sp ir
IN G
 pr ices
3 3
 al bum
w ww
 E very
ro id
 F rom
 employ ees
 fem ale
 pred ict
 Eng land
 will ing
 crow d
 Bro wn
 ra ised
 j ump
ribut ed
 supp osed
â ,
 happ ens
 B re
 add ing
p i
 cir c
 polic ies
 D el
u ana
 char ges
 p un
 bas ic
 concer ns
 tradition al
1 00
 pl ant
ri an
 re por
 abs olute
 M ag
 ac qu
 fund ing
N ot
 sl ight
 com mer
 pat ients
 author ities
 pro s
 B ay
ve re
E x
 creat ing
 n ames
 h ttp
 f reedom
 min ister
 A P
 sc en
 me chan
if ying
 see ing
 st yle
 ag ree
 H igh
 be at
 st ation
A m
 p ush
 l ik
ij uana
 behav ior
 le aving
 re b
 b irth
 c ry
 im pl
 Sc ott
or g
 act ual
E L
 ens ure
 off ered
ag er
 agre ement
 Flor ida
 wa it
 ha ven
 e th
iv ity
m ark
iver se
 Hill ary
 post ed
so ft
 week end
c y
 M ost
 go ld
 g reen
 L ou
 an t
O U
ro l
al se
 gr and
. '
 reveal ed
H ere
 We ll
 most ly
 val ues
 applic ation
in ary
D o
 v irt
 inte gr
 we ight
it ude
ac ing
 r ank
 ad op
 A ccording
 A lex
 v ac
 S un
tt ps
 estab l
ear ch
 L et
 prop os
 record s
S A
p en
il it
 ey e
p ri
nc es
 pict ure
 belie ved
9 0
ite ly
 b rief
 lear ned
 L aw
 str ategy
h at
 cho ose
 comm it
 h ospital
 wond er
a res
 d ire
ign ed
 mass ive
 Re g
az ing
5 00
ab y
 dev ices
 part ies
 qu al
l ay
 Ch icago
 law y
c re
ist ry
 w ild
 Pe ople
 c ars
  Ã
 P ort
 arrest ed
 Ph il
ud i
 Fr anc
 wh atever
 F in
 w at
 som ew
 Fr ance
as ing
 neg oti
 stre et
  ;
 prov ides
 wh om
anc y
g ers
 ask ing
 influ ence
 l ose
 feel ing
 oper ations
r re
 produ ced
 Ch ar
um an
 tem per
 M ad
 Sec ret
 m ission
d r
C on
 B ush
Ð ¾
 im ages
 crit ical
 confir med
 ent er
 show ing
I L
 per m
ol es
 f at
c her
il s
 run s
 be g
 opp osition
 res idents
 b order
 S am
 deb t
How ever
ro ll
 M al
 c ru
 te ac
 Comm ittee
m ine
ak ed
or ial
 se ction
 He alth
 et c
 def end
 produ ce
 
 Comm ission
v o
 Wh y
 br and
 M od
 benef it
 O h
 c ore
 t ick
 adv oc
 he ro
ag s
d es
 W all
v ant
 doll ars
ri ption
B A
ur d
 deter min
v est
 effect ive
h an
 sol ution
ill ing
 dig ital
 m ount
 interest ed
 v ill
 Kore a
t ies
 hig hest
ri al
 mem ory
 open ing
S T
 wor se
i ance
 lear ning
 respons ible
 tri al
 d aily
 k ick
 the ory
 off ers
 O ther
 Pal est
as c
U n
C C
 ag reed
 Off ice
 tele vision
 Franc is
ord s
 B ecause
 occ as
 det ect
 invest ment
 v s
 typ es
icro soft
ic ians
 ch air
 mil es
 mill ions
oc r
et ty
er r
out hern
 Just ice
 C r
 gener ally
A A
 bas is
 prop osed
 8 0
 M ike
The se
 C up
 P ress
 eff ic
 B it
 heav y
 expl ained
 R ec
m et
 m ap
 O ur
ur ies
 w it
 on to
il ing
4 4
 tr ain
b a
 part ners
ing er
 opin ion
 def e
3 2
kn own
 d er
 associ ated
 l oad
 sle ep
 d rop
 N FL
 m ale
 F ound
 g ra
 elect ric
 becom es
 re ject
ort hern
 Sec urity
 B u
 dest roy
 advant age
 co al
 ass um
 ann ounce
 L iber
 hundred s
 achie ve
 open ed
 Tr ans
3 6
 rest rict
 understand ing
 Joh nson
k a
v is
d it
 sur round
g ency
d ing
y m
li ed
F C
est ic
 Con t
 B ig
 mar riage
 sh ip
 manag ement
 th us
 Wind ows
 becom ing
 b orn
lic k
od es
 eas ier
 ph oto
 init ial
 legisl ation
 contro vers
 un like
 G reat
and er
ak s
 M any
 camer a
 acc used
 W estern
 lim it
wit ch
 neigh bor
 dou ble
 spec ies
ress ed
we ll
os h
 sh ared
 3 1
le vel
  ice
 jo in
g ree
 illeg al
z en
 200 6
M r
 s pl
 mach ine
 serv ed
G B
 extreme ly
 act ive
 ser ve
 3 5
it a
 doc uments
s pe
 Islam ic
7 5
B S
 aud ience
 loc ation
 A M
 scient ists
 bott om
 victim s
re y
 we alth
or row
 res ist
 belie f
 redu ce
 n ine
 mar ijuana
ab or
 sol id
 neg ative
 profess ional
 commun ities
if ul
 return ed
ad y
ear s
 P M
 Inst itute
 inc red
P S
 ch urch
 k id
 dep artment
 Sand ers
 r an
ir gin
 vict ory
 9 0
 Comm un
 purp ose
3 8
 U k
 veh icle
 leaders hip
 intern et
ist ics
 b omb
ust r
 mob ile
 jud ge
ortun ately
 inst ance
 ass ault
 H all
 separ ate
 not ice
 exist ing
 he aring
land s
 expl ain
 d ie
 doub t
 te ach
 A tt
 fa ith
 epis ode
 Y our
 Ar t
 watch ing
 inst all
 com fort
 not es
 b ed
ad ing
 B ank
 demon str
as y
 rad io
am b
 f resh
N A
 view s
 put ting
er ry
â ¢
 D ist
3 4
 suppor ters
 cons ervative
om as
 C ap
 arg ument
u in
ili ar
 che m
 laun ched
com ing
ac ity
O L
 app eal
 item s
 comm ittee
C l
P A
 defin itely
wh ich
 danger ous
h ouse
 co verage
 dire ction
 char ged
ar io
 flo or
ill er
 s un
b ing
E M
 m ax
 Car ol
 Ch urch
 F ox
 issu ed
 dru gs
l ant
ef ore
 compet ition
 back ground
 tre nd
 st ated
h ol
e in
im ated
 t ask
 tra ffic
 F BI
res p
Im age
 commer cial
and om
 D irect
 sp oke
ce ll
u a
 trans fer
 suggest ed
 st ructure
 sit es
 O ver
 h us
 n orth
 S ince
b ut
 dec ade
ampions hip
s en
 L ike
 repe ated
our ce
o ly
 re act
 anim als
 c ards
go ing
ist an
 no vel
 h arm
 tell ing
 d aughter
 dri ving
rib ute
 cl osed
 wor st
 entire ly
te red
 Brit ain
 cont ain
 dri ver
 dise ase
 small er
 disco vered
 n or
k es
ing ly
 L os
N N
ct ors
de red
 f alse
 c ash
 rest aur
 concer ned
A meric
 pl ays
 h ack
 sur face
 al leg
ress ion
ograph y
k er
se mb
ir ing
! !
 support ed
w in
 tool s
o es
# #
4 8
oy al
 comp ar
 trans port
 Ch ris
o om
5 5
ã 
 as pect
ann el
e qu
3 7
 P ri
 far m
b re
 ple ase
ul f
 old er
 7 0
h ow
C H
g ar
 U N
az on
 activ ities
 K en
ant ed
 g ay
ph one
 we l
om an
 G ame
 streng th
he m
 W il
 ins urance
ibr ary
 con sequ
k ins
and on
 Q ue
 large ly
 mur der
n is
n ight
 J ones
 c aught
 candid ates
inc ip
. â
 Israel i
 allow ing
 tal ent
 bl ue
 ann ual
 ex erc
v an
 test ing
at ically
L e
oss ible
S P
 str ateg
 ra ise
 st ock
 dec isions
 acc ur
 f uel
 c ateg
j o
 Uk rain
it able
 concer n
 belie ves
 aff ord
 S up
iz es
 tr uly
 t im
ic y
in ate
 ob t
 just ice
igr ants
 ha ir
 gener ation
S e
l or
 pres ence
 Jew ish
Ð °
 un it
ar ant
 init i
le ge
Ð µ
 Afric a
 Rober t
ol a
ang ing
iss ions
ol f
 hold ing
 M at
 b urn
 estab lish
 G ree
 l ength
 plan ning
 J ud
ul a
av a
 Afric an
 pl aced
 ref uge
 c atch
 Associ ation
 tell s
 sc ale
 spokes man
 s an
! â
 J im
 con v
 A c
 B ur
n el
 att end
 r at
 cell s
 jo ined
3 9
 r ough
 mention ed
 interest s
 S il
 ab use
pect ive
 has n
 P C
oll y
 o u
M ore
 G OP
 T y
 introdu ced
 deli ver
 conflic t
 s em
 miss ing
 ph il
 M icrosoft
 prov iding
 wa iting
B l
 can cer
 upd ate
i pped
in n
4 7
 recomm end
 St ud
 establ ished
c ious
 e at
 occ up
ocr acy
 Y es
 Je ff
 Angel es
b our
su it
 rem oved
 sub sc
 200 5
 am azing
 off ensive
 Inst ead
D e
 P ak
 inj ury
 sp orts
 discuss ion
D A
 oper ation
it z
 Fr ank
 down load
 use ful
 news p
 f ant
 C EO
ron ic
 G roup
 B er
 St ep
 F ore
 b anks
ig an
 sto pped
â 
 hom es
 meas ures
 mod els
 do g
 four th
 M P
O ur
se ason
ic ations
4 9
 gu ess
 b ul
ot ed
 201 8
 girl s
 st ick
 â
 fil es
 M ur
w orks
on to
 manag ed
 Lou is
 Palest in
az ine
 T im
 fig ures
G o
 ident ified
 g raph
 fin ished
 fund s
 S al
r g
 set ting
 se qu
 con clud
 comm itted
 Mex ico
 ass ess
 sk ills
 appro pri
 foc used
 m icro
 R ock
 ve ter
 arri ved
 TH E
 hous ing
R A
 V irgin
 keep ing
i ew
 part ner
 ex clus
 And roid
ens es
m ail
 ear th
 t ough
up s
 s outh
 Le g
r b
 Japan ese
 20 00
 relative ly
Ã ¡
 Sup reme
 trans l
and a
ow l
 ident ity
 feel s
 other wise
 surve y
D es
 R yan
 circ um
 prote ction
c ks
 ex change
 own er
 r id
ci ent
 phot os
 step s
oc al
 hus band
 tri p
os ure
m as
con t
 M et
 twe et
i res
 T re
 am b
 Ar my
 slight ly
 c ook
 Govern ment
 Pro f
 S ur
cept ion
 pr int
" :
 con text
 ele ments
 cl ick
out s
 Rich ard
 stri ke
 me re
ic ation
 def ensive
is f
form ation
d den
4 6
p m
 g ain
 f le
 S l
 colle ction
ro s
 kill ing
ag n
est s
d ers
 cor ner
e ah
 m er
 suggest s
od ies
 ag gress
an o
 gu ard
Ph oto
 comm ission
 dom estic
 Al though
 Col lege
ony m
ic ated
pro f
m is
 V er
 m ental
ic ide
 cou nc
 plan et
 Te am
igh ter
 big ger
 fam iliar
 fail ure
 N or
 J ose
 supp ly
w ing
Wh y
 g ender
 start s
 s ides
 Mart in
hed ul
 spe ct
renc y
w ith
 spe aking
 tal ks
b ar
 happen ing
 g e
e y
 organiz ations
 ar my
 J oe
 Ad d
 ro ll
a it
 tax es
 plan ned
 than ks
 spir it
 st ruct
 M ary
 d at
 h ate
 n one
 dec ide
 su dden
T C
 wind ow
 cre w
ver se
 car ried
N D
om s
 G ood
m m
ost on
ag ues
d y
 help ing
in ter
 S ub
yn am
] .
 3 2
 a ward
rib ution
 stand ards
 rev olution
 see k
 Th omas
u ate
 sc ript
 second s
 We b
 Res earch
 w ish
 scient ific
m akers
 imm igration
L ast
 vol unt
 4 5
A f
 stand ing
 The ir
oc ol
 qu e
 F ire
ad ium
 be er
d em
ut ers
 p air
 Al so
 Secret ary
 dist rict
 ac adem
av y
0 1
 co ld
 var iety
 mark ets
a e
H L
ul ated
 dro pped
 account s
st ream
 ter rit
er ous
 s ch
 fil ed
im al
 In ter
 bal ance
 imp ossible
 t ack
ill a
 neighbor hood
 de gree
 t urns
on ic
 P en
 At lant
 poss ibly
it ect
u is
 O ut
 oper ating
 app re
 altern ative
 vot es
R ead
 v ul
 b atter
 pr incip
 profess or
! "
 app ly
 fell ow
 cut s
 E v
ru it
 hon est
 M ars
 develop ers
 un ivers
 Serv ice
 Pr ime
ad ed
 T ra
p oint
 Syri an
 apparent ly
ul ate
3 1
 l ived
ol it
w er
 chang ing
li ament
 wor ry
 t end
 Carol ina
 M il
rast ructure
 un its
 r ich
 test s
 T wo
ict ed
I M
 hum ans
 Found ation
6 5
as hed
 ag encies
 M os
 P et
 sound s
 tw ice
 ult imately
 l osing
 phil os
 author ity
ob by
 sold iers
w ar
ã 
 anim al
 su st
 Im ages
 un ion
 sc hedul
M a
 m ut
 at h
 absolute ly
 health y
F rom
 pay ing
 D en
 equ ip
f in
 se a
i ams
uck y
 develop ing
 clos er
ad er
rel ated
 see king
 regard ing
ar ks
O f
 exp ensive
P r
 T ime
 poss ibility
 beaut iful
 relig ion
ans ion
 ap art
 Cent ral
 exper ts
 sol ar
 y ards
 fund ament
 fl ight
 writ er
 v ast
 pre m
 de ploy
 ad just
um n
re al
 sk in
i h
 t ast
 P eter
 imag ine
ap ers
id el
r ick
I V
 applic ations
 B ern
 intern al
olog ies
 v ision
i us
 D ec
 f lu
l ook
ack s
 Francis co
tr act
 inn ov
 Tor onto
 s itting
 L ast
 Con f
 un less
 Pl an
 US A
l ight
I P
 J es
ist ed
 Dist rict
 200 4
ore s
 g ar
os en
 respons ibility
E ven
P e
 cap acity
 Mid dle
at ures
 sy mb
 er ror
l ies
Tr ump
 f ol
 ar ms
 p il
 co vered
 J on
 fam ous
 for ms
 rem ind
 C amp
 f if
 un iversity
 gu arant
 t ight
ffic ient
 present ed
 s ad
 E gy
 cl im
cl ass
h y
ov ing
 S T
 P ut
 he at
t p
 surpr ise
 att orney
 elect ions
 P ublic
 est imated
 v ir
J ust
ort ion
 te en
ri ble
ain e
 S ol
 veh icles
 Am azon
 p it
 int ended
 o dd
 help s
 occur red
 ear n
 stre ets
l an
 B oston
 = >
N e
= "
 sp ort
 P re
 deter mine
L E
z er
 Bit coin
 exper t
L et
 A ri
 bro ken
all s
 p et
 f ired
r un
 fl ow
ru ction
 G al
U p
rou d
por ary
p ay
 sh all
 adv is
ust er
 M a
 tro ops
 res erv
u ke
ot ic
 Th ose
 n ar
ut s
 pie ces
ter day
 Ch ief
I ON
 rap id
 ref er
 C ath
 loc ated
or age
 Soc ial
 b aby
 pro ve
 M ass
 specific ally
an while
 pot entially
 An y
 se ctor
 hy p
 r andom
O W
 se lling
 O nce
 government s
 j ail
T H
is ation
 L at
 equ al
anc he
 J o
d g
l ines
id den
 f aster
ph as
 dist in
p ret
 bo ost
use um
ot y
 propos al
 fact ors
 pl enty
 equip ment
ce an
 lab or
 er a
 t on
 inf rastructure
v ention
 st ress
u nder
ve y
 st ars
 S pr
 we ak
 J ournal
 Virgin ia
 E n
 Par is
 pro secut
oint ed
 vot ed
O r
 off ering
p ired
 express ed
 vul ner
 b reat
 L ee
 bro ke
( )
 cl ot
 comb at
 rul ing
 F ederal
6 4
 ret ail
ri e
 ref used
 elect ed
 Gu ard
ure au
, '
 sec ure
 se asons
 conduct ed
 R ub
E very
ed s
 challen ges
 R iver
 rem ove
 method s
n oon
 C ur
 point ed
 O pen
 Is land
 rem ained
 Austral ian
 pr ime
an ish
 dr am
 tr ig
le ts
 pos itions
h and
 C ru
ll er
 cl in
9 5
 weap on
 M el
 car bon
 P lease
 inter act
et ic
I G
 s ale
ol ved
 d in
 cult ural
 were n
 significant ly
 b row
 orig inally
 D uring
pl ace
 affect ed
 appear ance
A b
 t ourn
 fac ing
 great est
th at
 Wh o
el ess
 fin ish
 you th
 st ret
i at
 percent age
 St r
 R o
 Ph oto
 sh ape
 m aster
i as
 determin ed
 sign s
 invol ve
is her
Ð ¸
h in
 b ought
 chem ical
0 5
 reg ime
 c as
EN T
on om
 g rew
ash ion
 Ste ve
b es
ly mp
 min imum
 inde ed
 d ream
 ar r
S ince
ock ing
 5 00
 B oth
> >
s ing
p erson
 inf ect
 M er
 mod e
 her self
 vot ing
al ing
f g
F irst
 obvious ly
 Col or
 For ce
c ol
 redu ced
 w ood
k et
 record ed
 arg ued
 re venue
 199 0
 we aring
 lead s
stand ing
 polit icians
 cont rast
 pl us
ed ia
 s witch
 th r
 purch ase
 S ing
 h urt
 trans ition
ber t
Ñ 
 ag ent
 pro ced
 Will iams
 appre ci
S S
igh ters
n u
 experi enced
 hand le
 exc ited
t op
 vide os
 h ttps
co hol
 M ont
 support ing
D P
ro ad
 H aw
 surpr ising
 In c
 P ac
il er
 min ute
 expl os
 bel ong
 consum ers
 ident ify
 consider ing
 Ch arl
 F ree
R ep
C L
ce l
 a id
 pull ed
 differe nces
 bas ically
 re nt
us ion
 gl ass
og ue
 N ov
 after noon
 B ook
 dep art
h ttp
st ate
 end s
 turn ing
 b ound
 fil ms
 pros pect
 sh ift
ru ption
 F ar
 tre ated
 acc ident
ap ter
 B ud
, [
 m ort
 mot iv
 list en
l ife
 air craft
4 2
 comb ined
cl es
 serious ly
 priv acy
O b
p et
 even ing
 se at
 opportun ities
H is
 19 5
 strugg le
he red
 pan el
 enem y
in te
 P ower
 comple ted
S p
 lot s
 D aily
  id
 talk ed
or al
 c art
 hop es
 pass ing
Ph one
 app s
os ite
P D
ne ll
 wide ly
An other
 cal cul
 emer gency
g ment
re ens
ens ions
 ele ment
our s
 sub s
 p owers
 B BC
T V
ang ed
 O lymp
ed er
 dis cl
 pl ants
 R el
 S ant
 H ol
 liber al
ra ud
 S ee
 m al
 sp ring
 opp osed
 I N
 t act
 copy right
 than k
 adv ance
S u
 Pro ject
 fact or
 R ad
 200 3
 t un
 dist ance
ive red
om pl
 Sp ace
 a st
P R
 attempt s
pl om
 T er
 experim ent
 R oad
uc ks
 trou ble
ri er
al ed
ob e
 h ol
 z one
 Jack son
 up gr
ad ow
 G et
st s
 repor ters
 st orm
 re action
 M em
ab ilities
ra wn
 writ es
U T
ain ts
 for get
 typ ically
 T oday
 W al
 p ages
resp ond
m osp
 gr ab
 pack age
 b odies
 sub m
 const ruct
 mat ters
We ll
 Sh ow
c are
ur b
4 3
 den ied
ic on
ro g
 qu ant
 su it
tern al
 expl o
 opt im
 qu iet
 N AS
ig er
 respond ed
 appro ved
 Tur key
 vis ual
g ent
 broad cast
 instit utions
 stand s
 Direct or
 set s
 sat isf
 U nder
4 1
A r
t ion
a wn
 g am
 s ac
raz y
m ond
Ã ¤
est ival
ad or
 m ent
 re li
 re new
 Oh io
 val id
pp ort
 se vere
 b att
 Will iam
 cap able
 200 1
is ters
 capt ion
 p itch
 l oved
ab in
 techn ical
 g iant
A pp
l v
ani el
 em p
 C y
es ters
 prom pt
 b ull
 conf ident
 conf idence
 num erous
8 8
 reported ly
as p
] ,
 fac es
 can n
 f ly
i os
 c e
 3 6
ol s
 Sy stem
 cre ation
 S qu
 pers pective
ff ee
 we ather
 un able
 Y et
I I
 Lab our
em ploy
ic ious
 Med ia
al a
 subst ant
 co oper
e u
 M att
7 7
ec k
 suff ered
 viol ent
 co ast
amp ion
f ree
ess ions
 pict ures
 m and
 experi ences
 appro x
ok en
 rout e
ang ers
 l it
 fl ag
 adv ice
et te
 And rew
 Pak istan
 decl ared
 or dered
 cr imes
ab led
raz il
 p roud
 report ing
ok ing
as tern
 circum st
 counc il
 ev al
 decl ined
 inst ruct
se x
 expl ains
h ab
 sh ar
 del ay
  \
 newsp aper
 A re
 F ollow
 should n
ound ed
 connect ed
 Sc ot
i pping
il ty
t ar
 on going
 L in
 wit ness
be ll
ev in
du le
 mov ies
 pick ed
O ver
 repl ace
 adm itted
T A
M A
d is
 del ivered
 d im
 a f
ov es
D uring
 M L
c an
 walk ing
 ag ents
 though ts
 edit or
 mar ried
c alled
ion ally
I nd
 em ails
 appropri ate
 a uth
ap ed
 R od
 em phas
 cl oud
O D
 R a
 arch itect
 le aves
 upd ates
 acc ompl
 g ather
 Muslim s
ans as
 W ood
 quarter back
 gun s
I r
 s ession
 s am
 M iss
 inj ured
 Te chn
 Sci ence
 ed ge
 public ly
 stat ements
ell y
p ass
 leg it
 per man
 L ake
 our selves
ell ow
ner gy
 real ize
 dri vers
 Gr and
O h
O ther
 D ou
 
c os
 ar med
ess or
m ates
 dec re
T e
 lawy er
 r ail
 read ers
re land
our ney
v ar
 pr ay
6 6
 R on
 G ra
 H uman
 cont ains
 f illed
 alleg ations
 activ ists
 Christ mas
 arg ue
 d ynam
  //
 198 0
T S
 Mich igan
 def ault
p es
 S um
 Re ad
 build ings
 we ar
T ube
 trans form
n h
 cr ack
am in
M any
 pr in
 terror ist
 t ree
 exerc ise
u ations
 lab el
 H ou
 effect ively
 pract ices
 el im
 I ll
 pat tern
 fl at
end a
 sub sequ
 So vi
 S her
 J ul
 f ish
d ate
 exam ples
 sh op
 critic ism
g ia
 pat ient
er a
 h ur
 Se attle
 object s
 secret ary
ent ure
r ant
 te ch
es ome
 miss ed
 ca uses
 r ain
h ost
 ro t
 deb ut
 ess entially
 mor al
 ¬
ord ers
 Ukrain e
 cent re
ar ters
 H y
F ollow
 inj uries
 C apt
 I D
 i Phone
 mot or
 R E
cell ent
 art ist
 for g
r ad
l ong
 cl ient
 G en
 b ond
 th inks
Q u
 V ict
ch ar
 Ph ot
Al though
 Sa udi
 fact s
 des ire
 d ial
 he ll
Ã ­
 s ke
t l
 govern or
r l
or ry
 material s
 perform ed
ac ter
 fr anch
 St an
 philos oph
 init ially
 b id
ic ing
az a
 necess arily
 S ign
w ord
S pe
r n
 B ack
 exp ansion
F r
 schedul ed
 link ed
anc ing
 war ned
 di plom
 adv anced
 K im
 p ure
 p ra
o oth
ill y
 every body
w rit
 expl an
ok ed
 res olution
ER S
 incre ases
 accept ed
 sc r
Y es
 G ar
 my ster
 fac ed
 g od
 b are
 disc rim
8 5
at o
ill ance
 announce ment
 follow s
 n ations
d ef
 inter pret
 play off
 ad vert
 ab andon
 rad ical
 Sec ond
 B et
 ath let
 ne ither
 yes terday
 near by
 dist ribution
 L ife
 m ir
 dat ab
 app lied
ic ine
or a
 mag azine
M ost
 consequ ences
 A nn
 v an
 M ount
 list ed
 do ctor
 P y
ir ty
 at mosp
 surpr ised
 off ense
u ous
 Re v
 W ork
k o
R es
 C NN
ed y
Americ an
 F e
 beg ins
 threat s
 sp ons
 Jew s
semb ly
 G M
 We ek
 A ff
 Col umb
 mov es
 rem ark
 H en
ic ul
 behav i
 ch art
 song s
 T O
 r ide
S ee
 add s
 T en
 with d
Ã 
 impro ved
du c
k ay
us iness
 al cohol
 A T
 fl ood
 De velop
 war m
al i
w hel
 sh ots
 f ill
 p hen
 Bl ue
 3 3
 st ood
 br ings
 pus hed
 under st
 gu ilty
 Rom ney
 ent ry
ocrat ic
 B razil
 dem ocracy
 boy s
 Sw ed
 un s
 N BA
ac ement
 law suit
 I reland
 manufact ure
 rece iving
ac le
ath an
 restaur ant
 Bar ack
M an
 tot ally
 On ly
 discuss ed
The n
 s ought
 r ising
 ent ered
 IS IS
 Bo ard
bur g
 consist ent
 histor ical
l aw
t witter
 st orage
 ro w
 cor respond
 plan e
 for t
 comb ination
n an
 sc ored
ide o
o ch
 but ton
 br ight
 3 00
 creat ive
 invest ors
 200 2
 art icles
 squ are
he ns
 is land
 S ar
 death s
en a
 fun ctions
 coll abor
 class es
 net works
 unlike ly
com m
ird s
 D an
 b oss
m l
al ty
 n ative
ic ian
 rough ly
 head s
t ow
0 8
 L ib
 l ie
 W alk
 consum er
 heav ily
N C
 An other
 fair ly
 May be
 temper ature
 I ts
c ons
 in put
 exist ence
 M s
ou nter
 pop ul
 As ia
 pl ot
 C ub
 res ident
 target s
 B ob
us al
 C arl
 Kore an
' ,
 spl it
 dr ink
 l ock
 young er
P U
 colle agues
 d u
Ã ¶
 cont est
 r ally
ac he
 l ibrary
 protest s
 D C
 any where
 cons ult
 b ike
 S ky
z ona
 bre aking
 store s
 express ion
it ors
og rap
 war ning
 import ance
 def ined
 bl ow
 bu ying
 pro hib
erv atives
 str ing
is hes
 V ol
 ad ults
 class ic
 was te
 sh if
 E ach
 market ing
 dis s
 c ere
 S ports
 l inks
Ã ³
O C
 prom in
 z ero
 man age
 Cl ub
op y
 c ro
 f raud
ic an
 sy m
 fac ility
ch o
olly wood
 3 7
 hard ware
 s now
 alleged ly
 regul ations
 sch ol
 ch ain
 H ist
ard en
ig ure
 do ctors
 cur rency
 house hold
 Color ado
 repl aced
0 6
 ess ential
 R ef
8 6
 p u
m es
on na
 somew hat
on v
 h at
om a
 prom ise
 fav our
 l augh
 B oy
 n av
 R ights
 hold s
 opp osite
Ñ 
 mom ents
 D iv
 opp onent
 c raft
and al
w est
P ol
 camp us
 act s
 vers ions
ew ork
n ic
etro it
H a
 ev olution
 mot ion
 met al
omet imes
hip s
 rele vant
 se es
r um
 H arr
 v ice
 b on
I R
0 9
 close ly
E n
 Y ear
 emot ional
ock et
 r um
 You Tube
 few er
 div ision
 pre fer
I F
het ic
ol ve
iqu es
 hard er
 s ick
 indust rial
 hop ing
 custom er
 Bro ok
f a
z y
 Val ley
 Im age
 pro ceed
ad s
g ame
p an
 ret urns
h us
 Hou ston
om is
ate ll
 particip ants
 E lect
 ext ent
 int ention
w a
 B at
ot al
ic ial
 ex cellent
 Sovi et
st ers
Ã ¼
 G ames
el lect
 circumst ances
olog ist
al ian
 E ric
 suff ering
 immedi ate
 W atch
ri p
 3 8
 l ies
 auth ors
 b at
 f ashion
 t iny
0 7
 g rown
G et
 R am
ef ully
 4 9
e i
is ms
 imm igrants
Ã 
 che ap
 kind s
n am
ut ch
 detail ed
ff ect
 feat ured
 me at
 un us
 compet itive
 m ine
in em
 p ipe
 W ik
n ame
 desc ribe
 for med
 carry ing
 I P
 tourn ament
 D ie
pt y
 tr ick
 relationship s
 H el
 cy cle
in als
 fundament al
 A ut
f riend
 w ave
 c razy
 sign ing
un ction
  ing
 w ins
ph y
 ear ned
 decl ine
 W ay
om in
 Cath olic
ens us
 em br
 str ange
 Palestin ian
 reg ional
st yle
 Jes us
 b ra
 an cient
 frequ ently
 D i
 act ing
ci pl
 Put in
 man ner
rom e
 effic ient
d s
 pus hing
 C IA
x y
 comfort able
0 2
it i
 sh aring
 gu ide
O RE
ious ly
 con c
 E conom
 w ire
 own ed
oc key
 commit ment
 along side
 O F
 inst r
0 4
 Dav is
 cou n
 â
 controvers ial
 art ists
 L ord
 arg u
 e gg
 P o
 3 4
 m outh
 repeated ly
ke l
ï ¿
F P
ad el
 4 8
aw a
 h unt
 attempt ed
b orn
 E ll
ig ation
 upd ated
y ou
i ency
 pre gn
 sche dule
 P S
am m
Ð ½
 A L
 P rem
 up coming
 N Y
 W in
 R ight
am ily
al le
 col umn
 dep th
 virt ual
D S
 j ourney
 stru ck
Ñ 
 stud io
 real ized
 des k
bu ild
Des pite
 E nergy
% )
 W ars
 inv ent
h u
ce ived
 j oint
 L ong
f oot
 serv ing
 c ert
 O ld
 walk ed
 p ed
ci ples
 re put
ck now
ri ve
 ur ban
 is ol
C om
 Char les
 target ed
 ch annel
 ass ets
 W ild
 ins pired
 hot el
 Ari zona
5 9
 news let
 post s
 un iverse
 ag enda
6 7
L ike
0 3
iam i
 t ort
 ca using
 wat ched
g or
c ar
 l i
 su icide
res ent
 over whel
 us ual
 O ffic
 surve illance
 k it
 int ent
 sk ill
 l iqu
 chair man
 s ister
 opp onents
Pe ople
 Cru z
F i
 l atter
um ber
az i
ograph ic
n p
P er
so le
 surround ing
ver ty
 fol ks
 know ing
 or ders
ad d
 ter min
 liter ally
 or din
 observ ed
d ro
 rem ote
 J ava
 Ag ain
T wo
 subs id
 sa v
 win ter
c hers
 appro val
 s and
 Def ense
ag an
 teac hers
 bas ket
u ated
 main stream
 T op
 exc iting
av or
ay lor
t le
 protect ed
 not iced
 deal ing
 sim pl
c ript
 You ng
an es
 prec ise
i i
 h all
 Ch ild
 7 5
 deep ly
r ich
 communic ation
 s ending
x ual
 for th
i est
 J r
ab is
 C ard
u able
b oy
 batter y
 po ol
 n arr
 fix ed
 as ide
M ay
b el
ger y
w l
 w al
 proper ties
ne ver
all as
 al ive
 nar row
 w ake
k l
 pass ion
 e ating
 mist ake
 E nter
 expl ore
 n orthern
 h o
 fr ame
 co ffee
c al
onym ous
ens ity
 Ar ch
 197 0
 dom in
 ra pe
 k ing
 vol ume
 re in
J oh
 prom ised
 ris ks
 ex hib
 W at
 swe et
 d iet
 stre am
 H ome
 F ort
 cons cious
 test ed
 se lection
 w age
 defe at
m em
c hen
 M ax
 re ward
 wel come
 sk y
 ext ended
 territ ory
 put s
I nt
 refuge es
 un employ
 phen omen
 Br ad
 s ample
 he ight
 C ast
 approx imately
ult ure
 K evin
 any way
for ce
k ed
 D etroit
 destroy ed
 sh o
 impress ive
 g ap
 V an
 d ry
 pro of
 cr ash
as ks
ob ile
 un known
ut ral
 loc ations
 g ang
 P R
 inf l
 select ed
 w est
 ad ult
ap se
 bl ame
 attack ed
 F il
 con ver
 max imum
 M iller
ang es
w oman
 prom ote
 she l
 mere ly
 Wil son
 franch ise
 K n
it ar
 request s
 sudden ly
6 8
 slow ly
ick en
 prot esters
 dis ag
p ool
 teac her
 typ ical
ll s
 mod er
 W omen
 ch ose
 mat ches
 w id
 lic ense
 proper ly
 ass ume
 T it
 T al
 disco ver
 C amer
 Cl ass
 wor ried
 D un
or ation
 k ne
 ab ortion
 all ies
 b ag
C A
og an
 ob lig
E d
 support s
R el
  Î
el ine
ow ered
 terror ism
 arg uments
 them e
ou n
 fac ilities
 sust ain
 Ã
 recogn ize
 e ast
st one
B u
 Ã
â .
f u
 ad apt
ir on
ord an
 f uck
en ger
ast s
um s
 M ic
t es
p ost
 equ ival
or ter
az e
 M ot
g ender
 volunt e
 D ar
 po verty
 D own
 obt ained
 form at
 It aly
 nom ine
 de als
 fe es
 r ub
5 7
v y
 underst ood
 H ollywood
 contro lled
in er
 D am
 top ic
 crit ics
 Soc iety
 Ag ency
ic ate
V ER
 so le
 F ord
ax y
 Pol it
 B est
 Jer sey
os is
 vill age
as er
 di agn
 Con tin
 Ad minist
 pl ug
 lik es
 pun ish
 ev il
 d ress
 Geor gia
 squ ad
 b unch
 Comp any
 journal ists
 M en
D r
 exp osed
 reg ions
 S ea
 sche me
 communic ations
 trans p
 st im
 a cknow
 lim its
 some how
or ic
or i
 strong ly
ot es
red it
 hon or
 dr ag
 resist ance
 ch ampion
 F our
 const ant
 s outhern
 ph ase
 NAS A
 P an
 p al
 De v
 tr uck
 N ight
 person ally
iven ess
 C am
 N HL
 de ck
f ire
 St and
nes ota
 fall ing
i ot
 somew here
GB T
 Ex p
 employ ee
 har ass
 en h
v it
 defin ition
 be ar
w an
ins on
 Net work
au g
if orm
 C D
 compar ison
 poll s
 B ru
ow a
es ter
 dec ent
 Sp anish
 em issions
 3 9
pect ed
 V iew
em s
 em pty
 L ove
 M iami
rib ing
 h its
c ow
ar ity
 encour age
ra id
 direct ed
ack ing
al o
L a
 L y
 L and
 A v
z ens
7 8
 meet ings
 B ell
 win ner
 E nd
 got ten
U R
 D aniel
 electric ity
 esc ape
 ch osen
 offic ially
 ben ch
 stret ch
 datab ase
 Des pite
 re n
C E
 strong er
 G i
 Rom an
 de leg
 purp oses
 Tur k
 cut ting
C an
 int ellect
 D NA
 ple as
 f old
 ext ensive
 amount s
 an x
 As ian
 tre es
end ers
i xt
oc ation
 des per
 fif th
ost er
 b le
 ide al
 r ing
 
l ist
C S
 good s
 develop er
un ning
 claim ing
 In s
 capt ured
 Th ough
 find s
 dri ven
 s oul
An y
 pay ments
 m ult
 t ies
â 
 reason able
 do gs
 some body
 end ing
 N ations
 cho ices
 se ats
 p od
 Serv ices
 B rian
N E
ul s
 B as
 M u
 Th ank
st ein
 d rawn
 s ight
ur a
 K h
im ent
 threat ened
 rul ed
as ters
M L
5 6
 Att orney
 Ir ish
 trad ing
 prim arily
 th read
ow ed
ce ler
ep ing
 aspect s
 f ighters
 answ ers
 perfect ly
 S outhern
p ti
 Ac adem
 v en
 park ing
 r ival
 reject ed
 const antly
se a
 L ar
 pay ment
 distin ct
 f lying
 techn ologies
< /
f ast
 r ig
ren ce
 comp onents
 Scot land
 else where
 any more
Pol ice
 field s
 Step hen
 sol utions
 result ing
 aw esome
 C at
 prov ince
x p
ob b
Don ald
 world wide
 regular ly
 act or
 Mo ore
 cour ts
 narr ative
 ¦
iz z
 b oot
 enem ies
O nce
 mix ed
 O S
 D ark
reg on
b al
 Dis ney
 hous es
 no body
 4 2
y e
cu it
 cont ribut
 control s
 let ters
 M S
se ll
 G all
ag ram
 lo an
 may or
 out come
e an
 T urn
5 8
ian a
 Re al
 ap artment
 coal ition
 cont ributed
 t ank
is an
gre es
 conclud ed
9 8
cl aim
 Ad am
 ex ists
 found er
 atmosp here
 L ew
 prof ile
ar ly
 sit uations
ten se
 m o
 Ch ampionship
 incred ible
atter ns
 sign al
ear ing
 A uthor
 R og
 accur ate
S ec
u an
 Vict or
ot ten
." [
 employ ment
 cl ients
y r
 fr am
em b
 inform ed
3 00
l s
 base ball
l it
 L uc
 tick et
 instit ution
M P
Al so
 gener ate
 t ied
 we ird
 categ ory
 ang ry
 rout ine
 ra ising
 Or gan
c us
 W here
 mach ines
adel ph
 prov ed
 C ivil
 dem ands
 g aming
 incred ibly
 It alian
 cru cial
M S
 keep s
 st uck
 k il
 D allas
ld er
 T w
 ter rible
 S k
 feed back
 u pper
 pl astic
M ar
 new ly
 Jose ph
 im per
 do zen
 ent hus
 est ate
 man ip
 inn oc
 bill s
 Sp ain
im a
pp ers
 writ ers
T oday
 T em
 aggress ive
 L ight
ul es
 repor ter
m od
 comp ens
 return ing
 st ead
 const it
 ro ster
 program ming
 Th anks
L A
 r us
 B owl
end o
 assist ant
 A R
 Min nesota
 organ ized
ri a
 pen alty
adelph ia
 s atell
 Pro gram
qu ir
G u
 sy nt
 capt ure
 cont em
 explan ation
 cons pir
 count y
 g ro
ific ations
ons in
ar on
  %
ann y
the re
 assist ance
em en
gor ith
isc onsin
 compl aint
ess ed
pro du
 mag ic
 t all
s he
 gr anted
ad i
B ecause
 O per
ack ed
 compl icated
 n ut
 aud io
 ch ances
 199 9
 sh ares
es y
 success fully
 E duc
 pil ot
 I T
enn y
 my th
in ations
 S C
 reco very
 techn iques
 Z eal
5 1
 scen es
 veter an
 er r
im p
 ( $
 de grees
 ph r
 C are
 sym pt
 F re
 law makers
 oper ate
the w
ry pt
 prof it
 aim ed
 ad s
5 4
6 9
anche ster
id ency
er m
 eng aged
j a
 priv ile
 T est
5 2
 r ating
 teach ing
 academ ic
 p ic
 doll ar
 pass es
 autom atically
 Egy pt
gre g
 H ot
 Pac ific
 R em
 mon it
 bl ocks
 the rap
ab ama
 att ended
ial s
% .
 surv ive
 ant icip
 Fore ign
he nt
 perman ent
 mark ed
 ass ert
 h idden
 B lu
 L ook
 acc omp
l ock
 b om
 tit les
 Sen ator
 N BC
 t aught
r id
ly n
 Lin ux
 eng age
it als
 ext rem
ever al
i ro
 el ite
 lawy ers
 dep ending
 val uable
 inst alled
 ch ampionship
ch ain
 en able
 B ull
 equival ent
 ha bit
 sol ve
H S
 ro ot
 comp re
if er
 d uty
ll a
E A
 Spe cial
 6 4
 p ace
 reput ation
 unc ertain
 ph ones
f rom
 T aylor
 person nel
av en
 vis ited
 su fficient
 war ming
atur ally
app ing
 prin ciples
 vulner able
H A
 enjoy ed
 f ake
 fem in
 N ick
 negoti ations
 gener ated
 exp osure
e en
 J ordan
, â
 H om
 rec ording
 collect ed
 regard less
or ne
re ams
g ener
ã 
 K elly
 bit coin
) )
 tast e
 p atterns
G etty
 d ict
act ive
 T ake
 A venue
 c able
 dis aster
 main ly
 work er
ib ilities
 fr ustr
 Co ast
 rac ial
 p ounds
c ers
qu arters
r ific
 V iet
 port ion
as hes
 af raid
st ar
 1 50
u ine
is er
mon th
 bus y
 gr ant
 in tense
 T ony
 L GBT
 Ser ies
 fun ny
 Ant h
 ap olog
 cy cl
 c up
 sur gery
 Mos cow
 poss ession
 w estern
s hip
 promin ent
In st
 com ic
 col on
 R ay
c ription
isc al
 N ation
 St ill
 C ome
 K ent
et ary
h ar
 A li
 unus ual
 C all
 E astern
 t rib
 h am
t re
r an
 C ross
7 6
 result ed
 C oll
 emer ged
 tax pay
 g all
 prop ag
 trou b
 O s
 O regon
 E p
ath y
ed a
 cor ruption
 st ations
 I owa
 f ought
og n
 br ut
 ext ension
 A D
pr ise
is p
 adop ted
C ont
 compet e
 rec ru
 N orthern
th is
g un
 Zeal and
  â
 had n
 track s
 ex cess
 every where
c ue
 4 00
 m ail
he rent
man n
 contract s
 D ig
 5 5
 C ir
 feel ings
 cry pt
 R ick
 fir ms
idel ines
 minor ity
 par am
 rare ly
 advert ising
 K urd
vious ly
B a
 san ctions
 V eg
 un w
 Phil adelphia
 Rep ort
up id
 camer as
sc ape
 expl icit
 fin ance
U L
 c ited
act ions
 en orm
 str ict
 short ly
 t ur
 B efore
 expect ations
 B alt
 implement ation
 over se
 bl ind
as ion
 W ater
 De ad
l og
 rec ip
 Gree k
ant ic
 def ence
 thous and
 In vest
 aff ili
m aking
or ough
 C le
 inde x
 N avy
 st ab
M i
 phot ograph
 med ium
ret t
li x
AT E
L C
 scen ario
 W isconsin
 dis pl
ist ent
 J osh
 F ood
â ,
 L ive
 vis ible
ars h
il ton
7 9
8 9
5 3
 light s
ri ent
 prior ity
 creat es
ar n
ind er
 th ick
C ol
 dis cipl
 ob st
 br idge
f all
 Pol icy
 perm ission
- --
 al gorith
iz on
 particip ate
 in tr
 l oud
+ +
 H as
 L o
 brow ser
 ag ric
ask a
 Pro te
wh o
 C O
 t ag
 m el
 Gl obal
an ing
ac c
e z
 do zens
 4 4
 comput ers
 la id
 basket ball
 loss es
 King dom
 ill ustr
: :
 St at
az z
 th in
 stri kes
 princip le
w ater
 Develop ment
em an
 form al
 sc oring
ol is
 coun sel
at hered
E P
 to m
 sh ock
ag ement
 w ing
 wonder ful
ig en
 S P
el and
 beh alf
 histor ic
am i
van ia
  _
 B usiness
 inter face
 symb ol
 Hen ry
 to ler
prof it
 establish ment
 j u
 out r
 M ajor
 ele v
 pre p
 F oot
 Th us
B O
 fe e
 g ained
am ber
 G reg
 found ed
 found ation
 club s
 E SP
ob s
 cann abis
ili pp
 6 5
 air port
 Ke y
 H or
 b orrow
ed ing
 manufact uring
 re ly
f ound
 Al abama
 gen uine
r ary
 R oyal
in m
 comp onent
 whe el
 O ak
B efore
 rel ief
 ne uro
y stem
nv iron
ose xual
 M oh
 sa ved
 h ole
 y ield
 head ed
 ve get
 As h
w orld
 journal ist
 g ift
 withd raw
we ight
 indic ate
 un iform
 draw ing
 su c
 E mp
 - >
 st able
 sh ips
if ies
ar lier
 ban ned
 P ay
t est
 V is
 foot age
 con dem
Me anwhile
 K ir
 do ors
 recogn ized
 19 60
 F C
te en
u ce
 r iver
 strugg ling
p read
we et
 sp ark
 Academ y
 wall s
 achie ved
 neigh b
op her
 pl ate
 ed ition
port ion
 H T
 move ments
 t or
 pur su
 D id
 deli ber
e lect
 A S
 shar p
ag ger
 ne utral
 R and
 vac c
 epis odes
 Prem ier
 Th ree
 F und
 cy ber
 except ion
 produ cer
um er
 dest ruction
et ts
os a
 199 8
 belief s
 Re view
 leg end
 back ed
P ost
 p ump
rat ors
ou red
 h ired
 lik ed
ides pread
vin ced
Ad d
 H it
 ro les
 langu ages
 ent ering
 F red
 profess ion
 V R
 interview s
S ub
 to x
 philosoph y
 Administ ration
ab s
 N ob
Th ose
 J ac
it led
 fl aw
 S now
 P u
 st adium
 Atlant a
 redu ction
i ation
 Par liament
 ac celer
im ore
 4 1
 a ver
 Turk ish
bur gh
 N ote
 Conf erence
 tack le
R S
 g onna
 in ev
 mag n
 trans m
 Die go
 R et
 farm ers
 M anchester
 nomine e
m ate
ab b
AT O
 J ason
 bare ly
 h ang
ud es
4 00
ach ing
 struct ures
ere st
 Cent re
 cont ained
 din ner
 E s
r ac
 f ract
 deli very
 tra il
% ,
 t ap
 process ing
 discrim ination
nviron ment
o en
9 6
 b ath
yl vania
i pp
 4 7
abin et
R ef
s n
P l
 intellect ual
 D ata
z ed
 c orn
 B ry
ams ung
 F ield
 O K
ta h
 F air
 H a
 up set
ol en
erv ed
 Per haps
ic i
 Educ ation
 M ir
 challen ging
P resident
 restrict ions
ns ylvania
 confir m
 trig ger
 elect ronic
 H ay
 h itting
h ttps
 pro ven
 N C
 e uro
 4 3
 un ex
 F ed
h m
 review s
 Christ ians
 com pe
 conv icted
8 7
 sm ooth
ur rent
ition al
 fore ver
 indic ated
eng ers
rou s
 produ cing
aw ay
 Ar m
D av
 Har ry
 rapid ly
 Ab out
 inc ent
 ro se
Ð »
s l
 o cean
 h ide
a ire
 R us
 list ening
p age
 Re uters
 U FC
 techn ique
R I
 l oyal
y ard
sel s
less ly
 rob ot
 not ion
 beg un
ere nces
 ut il
 recogn ition
 N ic
 per pet
 associ ation
ri ers
 sh it
 as ks
 webs ites
 suc ceed
M c
 desc ription
 tick ets
 4 6
in ch
 fl ash
ach us
 suggest ing
r ated
 exclus ive
 reach ing
 P ack
 K ansas
ol t
ur ation
 w ed
 an ger
 May or
ow ing
 progress ive
Wh o
um a
anc ou
 equ ally
 b ail
r ative
 hard ly
 w idespread
 campaign s
 A BC
 cont ribute
 fr ag
im m
 br anch
9 7
 gr ass
 initi ative
 eth nic
L ook
 R ose
 Mark et
 ex ternal
b ro
f ront
 unc lear
 sens itive
ple te
 pract ical
ci ence
 norm ally
 Int ell
 H ard
ust ed
 O l
 sp r
 S n
 we lf
 redu cing
r ical
 friend ly
w orth
R ec
 care fully
 Arab ia
 F ull
 inter f
 S at
ik es
ru g
P M
 rac ist
P G
 respect ively
f are
 Ne xt
pl oad
 t ail
 S ir
arr ass
 McC ain
 overwhel ming
b ec
ancou ver
 view ers
 welf are
 Be ach
 F urther
 Bern ie
 con vinced
 sm oke
 coll apse
ï¿ ½
 involve ment
 U s
 th rown
St ar
 terror ists
 strateg ic
 h ook
he ast
um es
 L ind
 reco ver
th on
olog ists
ick ing
l ers
igr ant
 un com
 Jud ge
 O nt
ap h
 Lat in
 w ra
 mind s
ino is
 R en
 sett lement
ro lled
C he
 stat istics
 v ary
 l ists
ut ies
 w ine
 feat uring
 un p
omet hing
 Mus ic
pr int
achus etts
 sett le
 behavi our
ou ch
ec ut
 ESP N
 dev ast
ned y
 inv ited
 compl aints
B r
 score s
 f iscal
et ime
 deep er
 mil k
 Pen nsylvania
 i P
 fant asy
 st eal
 dep uty
 el ig
r ate
 co ord
 Squ are
 w ars
om ing
 investig ate
F A
 II I
st ract
 su gar
 schol ars
 any body
 subject s
 i OS
rat or
or ce
 ar ray
S en
 A ND
 I d
x i
b n
 al ien
 l obby
 G ov
 owners hip
 fram ework
 unemploy ment
inte rest
 S S
 sp in
 trans gender
 Div ision
 B a
 men u
 improve ments
 K at
ef t
 pe ak
in at
 l uck
 sc reens
ivers ary
 def ine
 dem ocratic
 t asks
m ary
 X box
 sc andal
 j ury
 Min istry
 compre hens
re f
od d
 disco very
un ior
 cas ual
l ad
 citiz en
 f ab
 Rad io
 s in
 road s
' .
if est
 fail ing
ac on
 N SA
 pro sec
 serv es
 dynam ic
 Camer on
 Bro ther
7 4
y o
 g athered
 P it
 L ittle
 reg ister
 implement ed
 controvers y
 s oph
un ter
 collect ive
S m
 tr ained
are t
es h
 fear s
 Ant on
 neigh bour
level and
 sam ples
 f iction
 In formation
 T own
 est imate
 Commun ity
P C
 Med ical
 I ce
od ing
7 2
le te
 app oint
 199 7
 refer ring
 t ip
 Ph ilipp
 199 6
 sp aces
 d ad
 vers us
 H u
 leg s
og en
A G
ick et
 tem porary
G r
c ific
 H D
 Sant a
y er
 no ise
N S
 visit ors
 civil ians
 w ages
 hyp ot
 rid icul
 re ven
 rem arks
 t one
 recomm ended
 Walk er
 aware ness
 st upid
R C
 All en
 head ing
 hand ful
 reg ulation
 platform s
 C ore
 acc us
 Anth ony
 Spr ing
 aff airs
 touch down
 r ural
 attack ing
os it
p at
 ult imate
B ack
 ext end
 att ached
 C re
 Un f
 Veg as
 discuss ions
 hor se
 B attle
 B rew
 expand ed
 attempt ing
W ill
 gen etic
 K ar
 Mat thew
ph ones
 r aces
 Que en
. -
 Columb ia
 r aw
 M ah
 f ro
 ign ore
 A ction
 Guard ian
 g ear
 Pat rick
 sympt oms
 suff er
" )
h our
 sett ings
 sal ary
Joh n
 lic ens
E l
 ex tract
n l
app y
 P ent
 tweet ed
 J ay
r f
 N ever
n j
 ch a
 br ill
 rec all
 F ly
 suspect ed
 public ation
 purch ased
 fact ory
 inter vention
 B ra
 hol iday
S te
 the at
 ex tr
 rank ed
 ne ck
 Aust in
 eas tern
 M ake
 Cons ervative
Ab out
ty pe
c ase
 M useum
 R oy
 enorm ous
20 14
int endo
su red
 log ic
 improve ment
 AP I
 view ed
 ing red
 legit imate
 Prof essor
omm od
 Bu ild
 pres um
 Mass achusetts
 I mp
 obt ain
 201 9
 T ed
 streng the
 adm it
 w ww
 act ors
* **
 substant ial
 human ity
  00
 in quir
 invol ves
 resour ce
ing ton
 brother s
 liqu id
W S
 seem ingly
 s orry
 lay er
 f ault
ang el
 al ter
 lo ans
 ro ok
S a
ov al
 abs ence
 prov iders
 tom orrow
 f allen
 ground s
 co aches
 st ake
 A le
 res ign
 B all
 orig in
 advoc ates
ak a
 â ¬
 ch at
 c ogn
 out s
 investig ators
 conspir acy
 med icine
 dram atic
 f ulf
ron es
New s
 mon itor
 Ch air
 ch apter
 Se ason
A ss
 b ureau
 c oc
ult ural
own ed
 activ ist
 ir on
 bo at
 ent r
il a
 susp ended
 p apers
 Cont rol
 Gree ce
 Che ck
enc ing
 j ur
 opin ions
 S uch
t ain
W here
ar ms
 miss ile
 R oss
 Rev olution
 stay ed
 co vers
c ut
 d iversity
c ore
iver pool
oty pe
 Gold en
 b ars
x it
Sc ript
im ony
v ity
R uss
 T ri
 emb arrass
 offic es
 He ad
E G
ES T
 P ot
our se
ann on
 C ook
 dis rupt
 care ful
we red
 fore st
am med
 am id
 Hist ory
20 16
un es
c s
 aut hent
 Ill inois
 C BS
cre te
 A cc
 W W
6 3
Rel ated
 S ony
 5 2
 transport ation
 V ancouver
 G aza
 hand ed
ent h
 b a
ge on
ust ration
 prot ocol
 consist ently
 read s
K e
 att itude
 clot hes
 Ken nedy
 over t
 F reedom
 p orn
 Sh are
 dep ends
 pet ition
 not ing
U nder
 war rant
 And erson
 col ors
 low est
 con ce
 v ital
 address ed
 F amily
u ction
ir a
 St adium
 throw ing
 Bro ad
 virt ually
 f oss
? ?
 guarant ee
 f ruit
M o
f re
 St one
B oth
 speak s
 Balt imore
 ste el
 cl osing
 d ed
ug g
 read er
ition ally
 person ality
 bu ff
F F
 m ad
 bre w
d ri
 appreci ate
it n
r k
G e
 Iraq i
 E nvironment
 sur f
 Pat ri
 am bit
 S om
ig g
 hand ling
 prof its
 n erv
 B ang
 T ro
 k m
 tri es
ord on
 mar ks
 A C
 po ly
 fant astic
j i
 con sole
" .[
 l ands
 cover ing
 te a
sen al
iv als
 g ains
 ast ron
 should er
 C A
 w rest
ore t
 acc ommod
 E xt
 dep ression
ic ity
 Lew is
 l ucky
 Harr is
 encour aged
f lix
 jud ges
 inc idents
 C leveland
z ing
m aker
 d rew
 subsequ ent
 par liament
 sp oken
P a
 j e
 How ard
un icip
 bro wn
 b acter
! )
P lease
6 1
 r anks
 r het
6 2
 G etty
U N
 phot ograp
 A p
av al
 gu est
j u
ann els
 pain t
 infl ation
ix ed
x x
 Intell igence
 H ospital
 in ner
am ac
Ð¾ Ð
enn is
 m aps
ke ep
sc ale
 div ided
port ed
 199 5
 N ATO
ij ing
 over s
con f
 L as
 t rem
 r ational
 dr ama
 Mex ican
 dist ributed
 O tt
 innov ation
P P
 Unf ortunately
 c ust
 prem ium
 vot er
 re vel
 d ance
 U lt
 K ong
 5 1
 effic iency
 Ind eed
 prom ises
 g al
P art
 par alle
N ote
 B ad
 Wh ich
 ball ot
 temper atures
it ter
 port ray
 spokes person
 l ocked
 l ying
 j oke
 impro ving
 C H
 th rew
 enc ounter
 S amsung
ab eth
 d ump
 j oy
 mus ical
rop ri
 Lab or
 mist akes
ion e
d ated
 repl acement
 com edy
 m a
 With out
 St art
 che cks
 extra ord
 bar rel
 gr id
 respons es
ut ed
 protect ing
p ed
 D et
Â 
 cop ies
V E
 sil ver
 bu g
 break s
 instr ument
 Pl us
 common ly
 le ts
 leg acy
it age
 B uff
 prote in
kl ah
amac are
 pass engers
 ex clud
 y ellow
 Mar vel
7 1
 n aturally
A rt
back s
ect ion
 l es
 nom ination
 M oon
 meas ured
 Sci ent
 in ject
od ed
 pre v
 abandon ed
 U se
h op
20 15
 stud ied
 c os
 Foot ball
 Pr ince
 d iverse
hel sea
al ia
Y our
ed ge
 acqu ired
iet ies
 so il
7 3
 demonstr ated
C O
8 00
gh t
 bl ast
 fund ed
 head quarters
 st olen
 r om
 stri king
 A I
 count s
 sc an
 partners hip
 mid field
 upgr ade
 N OT
9 4
 C ost
 Atlant ic
9 2
9 3
 ordin ary
 m arch
 liter ature
 st ages
 pl ain
 199 4
S ource
aw are
 arri ve
 help ful
 ex it
 sc ope
 fall s
pe l
d og
 ign ored
he im
 cl ock
 ( â
B M
 tw enty
 N ev
out ing
 vir us
el a
 in equ
 Sh ar
 un ions
 Do es
 st one
hes is
ass ador
 cons ervatives
 L ist
 R os
H T
 sy mp
C r
 r if
p in
 sho pping
 f estival
 cap abilities
 wat ers
a o
 P op
 us age
r ine
 Emp ire
ig ue
 Indian a
orm al
 trans actions
 t ape
 hop ed
ile y
 gu itar
pp y
 â ¢
pl ate
 mechan ism
 st y
 H ind
 E ag
 assess ment
 re ar
klah oma
 univers ities
 r amp
 D ave
 In f
 monit oring
ct ic
 rat io
J o
 n ic
a eda
p ie
F acebook
 mar gin
 L im
T R
ack et
 m oon
 M aster
 B ron
 tra ve
 Ab b
 dist ract
br idge
 re qu
 track ing
f s
do or
nt il
 S ometimes
com es
 reli able
 t ie
 J am
on ly
 propos als
 S us
d or
 ske pt
 repl ied
 reg ist
ag ic
 critic ized
 appear ances
ecut ive
 ins isted
E E
 introdu ction
or ge
 20 20
 app ointed
d ney
 B ureau
is ons
 rac ism
ol ph
 beaut y
 aut o
 con crete
 supp lies
 perform ing
 rece iver
 b ub
8 4
 ex ch
 vis iting
 mar g
 Techn ology
et ers
the less
 Den ver
 
 let ting
 sw im
 def icit
 class ified
 Gal axy
 abs or
 P ass
 accompl ish
 program me
 L ine
 pres idency
i ences
 arr ang
ll y
 Swed en
 block ed
R ed
F l
 can ce
 re nder
 d ust
 dro ve
 land scape
pl us
 sy n
 U tah
 Port land
 A st
 ab road
 bon us
 Or ig
 sequ ence
 predict ed
 He ll
Â °
 sen ator
arch y
oc ument
 A ge
 m useum
 Associ ated
tr ans
 dom ain
 war n
 T our
 d ub
 su pre
 pers ons
 mount ain
ag a
nc y
 C ode
AN D
 P res
 Ont ario
or gan
 h ockey
 request ed
 d ates
 art ific
 test imony
 cent ers
ac co
om es
 C ro
 rock et
 ent itled
ult ane
au nt
 spokes woman
 De ath
ab et
 h ung
 N intendo
 Alex ander
 res cue
 Co oper
m ony
 ass ign
 trans it
 W el
 equ ality
ian o
m ade
 p atch
 ur ged
yn ch
f ol
 L A
 Olymp ic
 document ary
 veter ans
 cl ar
 b read
 to w
 popul ations
  ?
p ower
arr ing
St ill
room s
pro duct
ir ts
 whe never
 viol ation
 tact ics
 w ider
" >
 target ing
Y et
8 3
 pur sue
ound ing
 fir ing
 breat h
in ity
 ac id
pt on
 M ill
id en
 restaur ants
 comp are
 al ert
 L ow
 in clus
 â 
 Rober ts
 employ ed
 cons ent
 Bud d
 H ur
 B ible
 polit ically
 S el
 capt ain
ig s
 e c
m al
 phr ase
 satell ite
at ar
 surv ival
 G irl
 bank ing
 brill iant
 ch annels
 v es
 Be ijing
 soc cer
 B on
 Mars h
 bur den
 introdu ce
 experim ents
 F orm
 Just in
iz abeth
 prison ers
or ous
h igh
 W H
ounc ing
i y
the y
 f ighter
 f o
 scient ist
O K
usal em
 Y OU
 appro ached
 month ly
ene z
 A ward
 L iverpool
 c ig
 T ar
 design s
 M ach
 ins pir
th rough
 tit led
6 00
 qu ote
 popular ity
 ab ilities
 P D
 members hip
oen ix
 investig ations
 h osp
 focus ing
 b ab
 Mary land
Th ough
 sa ving
H er
 r ush
 Govern or
 sh adow
 D O
er ts
 object ive
 W as
 G un
 t ips
 S af
R L
 pipe line
ol ves
 child hood
 rat ings
 th orough
Dav id
 hy per
r as
 pre par
j ud
 D utch
C ons
 act ively
 H op
 N E
 demand ing
 lo ose
 V ill
 unex pected
 f ur
w as
 sm oking
 s alt
 den y
 sm ell
em ed
 univers al
 fore cast
 arg ues
ast y
 phenomen on
he ld
 overse as
t ra
on i
 sett led
el son
ar re
bre ak
 9 5
 week ly
 gener ations
 ch icken
b ow
 prep aring
 smart phone
ph a
 produ cers
 legisl ative
 anx iety
b ian
min ute
 innoc ent
sh ire
 celebr ate
 H ave
 prov ision
 but t
 n a
 mort g
 sh ame
ent er
 argu ing
all ing
or ious
 m it
 5 3
 for cing
 question ed
at us
omp son
 Des ign
 broad er
ber ry
 fl ags
 ke ys
 Ad v
ap ing
 f ool
r ite
 con cent
ra f
 dead ly
 C ow
 re verse
 we igh
 Ed ward
 Am ong
ai red
  ~
 wealth y
 Ob amacare
 t ab
 sure ly
t w
 sh ield
 t ens
P lay
d ict
 second ary
ail ed
ocol ate
 sav ings
 m ac
 ro of
is k
ir lf
 st ability
 civil ian
Ä 
it o
 reve als
 Car ter
US T
ig ent
 ann iversary
 s orts
b il
8 2
 ton ight
av ed
 rele ases
 room s
S im
is a
 Pro p
 outr age
irlf riend
 prosecut ors
 dis order
 G ulf
 ex ha
 threat ening
old s
 different ly
 rel ax
 harass ment
 qu oted
 health care
 wind ows
 spirit ual
 subm itted
 ar bit
9 1
 l unch
 o rient
 ill ness
 reform s
i el
 tort ure
 st ored
ou ri
 f ate
 o kay
P re
st ep
 propag anda
 sp ots
 instruct ions
 Viet nam
 round s
 199 2
ht ml
T y
 al t
 Mc G
 err ors
ten ance
m ind
 O klahoma
ih ad
 de lic
 sil ence
 Gra ham
 B ase
 Liber al
 H on
 Bel g
 a er
 grad uate
 cir cle
 afford able
 se ar
 Bl oom
 cooper ation
a us
 p icks
f und
N T
ors hip
 odd s
ag ers
 pu zz
 m os
 Sar ah
 stre aming
 comprehens ive
 important ly
8 1
 c ow
 Rub y
 exec ution
 strugg led
act s
 Le ader
 pers u
 A k
 min i
ut en
Re uters
 f inger
ish op
 Jer usalem
 des erve
 cal m
t ic
 hy dro
 land ing
D em
 cere mony
 C S
 assum ed
 demonstr ate
 difficult y
part y
 War ren
 Pro v
 ag es
 d ying
om y
h ot
ik i
 H unt
 ste pped
 b orders
as ury
et he
 adv enture
 L t
ah u
ing ers
 kil omet
ti er
W atch
 che st
 w aves
 Net flix
 Sil ver
 precise ly
 architect ure
 great ly
 S ab
ier ce
nes see
 aut onom
 prom ising
 C lick
 dri ves
un ity
 dial ogue
m ers
 newslet ter
 stim ul
 rook ie
 trem end
C omp
 Me anwhile
 award ed
b ury
 burn ing
 repe at
ag h
 sim ultane
 Scott ish
 P erson
 sem i
 V ice
 Ind ust
 vo ices
 analy st
A Y
 Bru ce
 g if
rib utes
 frequ ency
 proced ure
S tr
 want ing
 Mag ic
 execut ives
 playoff s
ov a
 St ory
A re
a fter
 stay ing
 A z
e als
T P
 b irds
 bi as
F O
 Comm on
 Te le
V D
 inc hes
 tr illion
ap olis
 remark able
 where as
 Palestin ians
 a x
 Jon athan
 impl ications
 form ation
or rect
 super ior
hold ers
 strateg ies
 S et
 fil ter
sc ribe
St ep
â 
 Sy dney
ic ts
ig ious
 M ORE
st al
 categ ories
d iv
 follow ers
 cre am
it ol
y es
 contact ed
ig ate
 jud gment
 sm ile
port ation
 kne e
 emer ging
 ass ass
 m erc
 inf o
 5 4
St ory
M s
ater n
 an s
vertis ements
 access ible
iff s
 phys ically
 ass igned
 B i
 gu idelines
 defe ated
 w ounded
 tri als
 manag ing
 S ix
 min istry
 gr ade
 r iding
 st em
 indic ates
 cent uries
A F
  !
 Aff airs
 Pr ice
ol i
 H ong
 op ens
 meaning ful
 T es
se ct
ie v
or se
l ined
 t iss
 M rs
 f u
l en
 clot hing
 St ore
ric ts
 Cap ital
j s
 particip ation
C omm
- >
 Ar k
 po ison
 Bre xit
 Ex pl
 Y emen
 frequ ent
 1 20
 compet ing
 L am
 mem ories
 l apt
F e
 Ste ven
 the ories
ic ism
 g ross
 rec ipe
a uthor
 ag ed
 re vers
 bl ank
 H o
 dr one
 C redit
 disp ute
M us
 dam aged
um ble
 199 3
e ven
et ch
d ie
 Ham ilton
 host ed
 subst ance
 V ik
 C helsea
 fac ilit
 promot ing
 B al
 open ly
 Inst agram
 19 50
 spe ll
 ter r
ond er
 invest ments
Go ogle
 cons ensus
 9 9
C al
ere my
 H old
 clin ical
  Ñ
 â 
 R un
 educ ational
pl ed
 F al
 Haw ai
 b in
 T ai
 cust ody
er ia
 Cr ime
 l ad
 elig ible
 leg ally
ak h
 miss ions
 mem o
 g ate
H z
 stud ying
 char ity
 n in
 t ables
 address es
 Le on
sh ot
 dis h
 r u
 disc ount
anc er
 W he
b its
 batt les
 As sembly
x c
 athlet es
 2 50
 un su
 Child ren
gh an
 Tr ade
 foss il
b t
 enthus i
 pre ced
ig e
 suspect s
 t ired
 Man agement
 he lic
it ual
 counter part
 d ating
AL L
 E th
 spect rum
r if
 man ifest
 St ation
 present ation
 l ux
 C ra
ri x
 bott le
 b ot
 L eft
 fund ra
ri ors
Ch rist
 therap y
vent h
 Egy pti
 W ales
re ts
mark et
ass y
 per ceived
 P ict
 domin ant
 back ing
 def ending
 F estival
 rac ing
 discuss ing
 under lying
 H an
ge red
 im pr
b ase
 expand ing
 mus cle
 stop s
 Se an
 be ings
m ath
 h al
 Mar x
 v ig
 U ber
le ft
 M etro
 trans action
 E qu
 rec ruit
it udes
 m ood
 conc ert
 pick ing
 G ary
 L u
ac hel
A ct
 Ex per
o z
yl um
land o
 manag ers
 gather ing
 Ber lin
 hop efully
m ic
ak i
 V ideo
 cr us
 Lib ya
 impress ion
 T ok
art s
 ex ceed
 food s
 h ip
 G T
ik a
Ã ¢
igen ous
ol ar
 ro y
 Bat man
se ction
 mem or
} }
 proced ures
 D a
 st ere
Ã ±
 pat ent
 p ocket
 L i
 arri val
 comp at
we ek
 e ager
play er
 poll ution
al ysis
 kit chen
 surv iv
it ure
 organ ic
 Pent agon
 e ase
 sh ipping
 tim ing
ater al
 Mor gan
ir m
 5 6
ar ation
od ox
 unf air
 m ice
 Ass ad
ut ter
 f lex
 ML S
ep lay
ative ly
 Rep resent
 capital ism
 Con nect
 dise ases
 per mit
 indust ries
 Oak land
 b owl
v ens
 Mur ray
 helic op
g ain
ac her
ort ed
 co inc
 be ach
 B oe
 punish ment
 l un
 hosp itals
oc ial
og y
 t ons
S C
 K ick
oc a
 she ll
 Come y
 engine ers
 dist ur
 ob sc
 h ire
opy right
D is
 pass age
 mod ule
 dep end
 stat ist
 coach ing
 ans wered
 F all
 El izabeth
br id
 regul atory
 graph ics
 so vere
 st ance
 S on
alt ies
 b ow
 Ke ep
 rhet oric
 be ating
 Em ail
V iew
 t ut
 F riend
 Y eah
 ph arm
 princip al
pt ions
ri or
n it
am ous
R eg
 pull ing
 sign ature
 T rib
M od
 conv ince
cos ystem
 vari able
h as
 p ill
 search ing
 Ten nessee
 over come
 six th
a a
 advis er
unicip al
con nect
 trend s
 Rus sell
 ( "
 Th ompson
 reb els
 inter action
 period s
vern ment
 psych ological
s ub
 O x
 p in
 M it
it ution
 econom ics
 M ain
est y
 out lets
v ia
 U sing
 sign als
 Int el
 Ex ecutive
 e cho
 tem por
 bill ions
 Kent ucky
 line up
e h
M ich
 Charl ie
 G il
 199 1
 Y an
T E
F inally
 c ul
 egg s
 O cean
 set up
ke e
net ic
d ep
 se gment
 mer ch
st ruct
 bad ly
 command er
 m ath
 every day
 S ure
20 13
ang le
row s
 Mc K
 l oves
 H oll
 Je an
 gen es
 b old
 requ iring
 inv asion
 part ly
 d ies
N BC
 ar ts
 rem oval
 R oll
 H art
 Dr agon
T ER
 u pload
li est
 top ics
 an c
g ence
 inquir y
 concept s
 P A
C lick
 R ather
 sh oes
P L
gr ade
 fab ric
enez uel
 Del hi
E arlier
p he
 Te ch
ts burgh
 se ctions
 occ urs
 m igrants
 compens ation
re r
h ard
 engine er
ol ving
D ef
iz za
 F inally
w atch
 attract ive
 un ve
A B
  ).
art ed
 c iting
 twe ets
 ut ility
 I ron
are ncy
 post ing
p g
 ridicul ous
 block chain
 V en
 hom eless
 Cl ark
re p
 speak er
 B ox
 di am
 cl er
Ø §
 L ink
 fl ed
ilit ary
 talent ed
 le ct
 coll aps
che ck
 not able
 m ask
 gen re
 dead line
 car ries
new s
 ro lling
 B M
 E T
are n
 appro aches
 elim inate
 scr ut
G O
un a
 F inal
 analy sts
 s its
 c ens
 h un
m ont
ol n
ne cess
 inst ances
ap es
 publ ishing
ee k
V P
â 
ro ph
 col our
 K han
 ro ots
 Ph oenix
S E
 Phot os
 collabor ation
 D ur
l ow
 inequ ality
 neighb ors
 G ordon
 P sych
 dram atically
 ins ight
¦ â
 hom osexual
 town s
 pri ze
 Har per
 extraord inary
 per ception
 par ad
 Ph ill
 e lder
 P arent
 Sim on
 but ter
 B ow
 G O
T op
 main tenance
o ice
l at
 che aper
 associ ate
 g est
 cou p
is dom
 c ock
 Bel ow
 constit u
 cor rupt
w ill
 g ene
em ic
 G ro
 P a
 cogn itive
 encour aging
 d reams
 se ized
 interview ed
 deploy ed
 ins pect
 viol ations
 camp s
est ed
 S ud
 com ics
 Re agan
 she et
 reserv ed
 bu ck
 employ ers
 aim s
 K u
eder ation
 re cept
ows ki
 myster y
 E vent
 gl ad
 display ed
ot ing
 lo op
 sp an
 Pri v
 function al
 tox ic
sc reen
P aul
 5 7
 tr aged
 occas ionally
 f er
 Econom ic
ric ane
ap ore
 birth day
 ex port
og a
est yle
 hero es
d b
Ð º
 sw ing
us er
 correct ly
 v end
 prompt ed
 fat al
ib an
 St ew
m n
m id
 contem porary
el le
 prospect s
re le
 recommend ations
 diplom atic
 S av
 disapp ointed
igh th
 manufacture rs
end ar
 ad equ
 b es
 D og
 moder ate
 St aff
 P ers
 8 5
 e cosystem
 accomp an
 G DP
 demand ed
M ark
 n ose
 Mont real
 paralle l
 D ick
m ir
 st amp
 Al an
 ut ter
 S U
 ple ased
 A h
 E ver
el ing
 lab our
 lif etime
 T ax
 Su pp
Ð ²
 C a
 Br idge
row ing
 Co le
 communic ate
 Res erve
 fight s
x ts
 mod ified
 Brook lyn
ry ing
 D u
 dr unk
 pr on
 s essions
 wed ding
 kn ock
le ans
 bi ological
 5 8
 L ibrary
 explos ion
gr ad
 land ed
 E PA
 rep air
 Z e
 Author ity
us ive
 G iven
 artific ial
or c
20 17
re ll
 che ese
ro ck
h ire
2 50
 own s
 rel ation
 Anton io
 l ift
 design er
ch ild
out ed
ix on
 kick ed
 def ender
Th anks
 h anging
re ction
 less ons
 Dig ital
 imp osed
on z
 gu ests
 an onymous
 concer ning
 pregn ant
 F ive
 adop t
ele ction
 s li
 Or der
 ass et
 Ch annel
 R ome
 p unch
 ingred ients
st ra
ac re
 sh irt
it arian
 pod cast
bour ne
 emot ions
 inter ior
 B ul
": "
 cou ples
 less on
 esc al
 Ar gent
 conscious ness
O ut
 sh ocked
 opp ose
 M ess
 res olve
 perform ances
N et
 volunte ers
 E st
1 50
 sold ier
à ¤
 v ocal
 Capt ain
 A mb
 log o
 acc um
is ition
ist ant
T ime
 Prote ction
 g irlfriend
erv ing
i ac
ult y
 L ear
 sum mit
 â
G E
h ist
 jump ed
 ann oy
 s ed
on c
 m ile
 P age
w ich
th rop
 ab stract
 n urs
Up date
 w o
 milit ants
cu se
 An na
ac les
S U
 profession als
 Miss ouri
 d a
( "
Inst ead
 s wit
 ref ers
 travel ing
 desk top
 isol ated
 for um
 advoc ate
 exist ed
I E
 opp osing
 l ibr
 rec alled
 Co al
 integr ation
Is rael
Ne xt
C ar
 g ri
 desc ribing
 box es
 Mic hel
 st ro
 6 00
C D
 des ert
 Or leans
 Java Script
ear ly
e xt
St ation
 O N
 M ail
um ph
 conf used
 min imal
 S D
 peace ful
N Y
y cl
 in herent
 surround ed
ixt ure
he ro
 n od
 C ustom
 m ole
 h oles
 me al
 198 9
 integr ity
 H ero
 K now
 Cap itol
 C ase
 inspir ation
o a
b b
 s ne
ð 
 Tr ust
 R s
e ffect
 exp ense
c ap
 p m
 cred its
 sub ur
 A ccess
 elect oral
 ide ology
  vert
E m
 F ant
 y ell
 sil ent
Ã §
 Do ctor
 Play er
G ener
 bur ied
 d ual
 Nev ada
 P oint
 bo om
st arter
. â
 desper ate
 cl ip
 sc ream
 cho osing
 bom bs
tain ment
im ize
to o
 O cc
 team mates
ok er
 b ands
 fle et
b ra
 C B
 S H
 Im m
 accept able
st op
 se ed
 Or lando
 W right
 Med ic
 brut al
 E ve
t m
 regist ration
 Port ug
aw ks
T ON
 st ack
 sl a
 M ove
 All iance
 subsc ribe
 strugg les
 key board
ib l
 On line
 moment um
er ies
 A rea
 Le ban
s it
 Hit ler
 promot ion
 Ar senal
v ation
 j er
 Ste el
 organ isation
 ev ident
 wond ering
 clos est
 Ind ones
 Follow ing
 te eth
 refuge e
 pro be
f ather
 mon ster
Spe aking
 embr ace
 at he
 occas ional
 anc est
 as sembly
S L
che ll
 bank rupt
r ics
ag u
str ong
 v ent
 qu it
 exp enses
 journal ism
 un co
 subsequ ently
H P
inc oln
 H amp
K E
L ist
 pr ide
 t ear
 gu ards
ex p
 interpret ation
 V enezuel
 w et
 H al
 y eah
ï ¼
 tra ff
 sub mit
 rem oving
 or bit
w ed
 del ight
 prof ound
 H and
 th ro
 W rit
 
 Pit tsburgh
 Mar ine
 dist ricts
ip edia
ene ath
 7 2
 exclus ively
 = =
 surv ived
 consider able
j e
 st ating
 kn ife
 S ource
 eng aging
 C ould
 ref use
 character istics
 just ify
to gether
 dom inated
 W y
Q L
 b ird
 Su pport
 brief ly
 N azi
 g ent
 ch ip
20 12
 Mount ain
 min isters
 C reat
 elect ron
A nt
 tremend ous
 cont rary
AR T
 sustain able
 disapp ear
 load ed
 fl our
 nerv ous
He y
 rout es
U C
 R aj
orne ys
 pro portion
 soph istic
ot te
 execut ed
p y
 gam eplay
 as ylum
 D uke
oc ated
 sex ually
 Every one
id ance
Th ank
 don ors
el ve
 p ir
 revolution ary
s k
 And y
G A
 A aron
 Al ber
 l in
pa id
 cur ious
. ]
 Fr an
ars on
 h arsh
ia h
li hood
 att ending
inc ome
 Tre asury
 Ad ams
 I M
sc ar
Ã ¨
 speak ers
 c abinet
lim ited
 now here
 L es
 D ream
 W i
 S in
sec urity
 8 00
at tered
 v oid
 ch ronic
 print ed
 br ands
im mer
 Tes la
 char ging
 eng ines
 phys ics
 H aving
 M un
St ate
 Sh ort
ad ers
 Sher iff
 out comes
 Offic er
Sh are
g ood
 sp o
 fle e
ubl ished
 W ord
 mir ror
b in
 cha os
 pass enger
 iP ad
 crim inals
p ot
7 00
le ep
 stead y
 f el
 S ound
 W olf
 Rob inson
gg ed
 l obb
 Net her
 Cur rent
 Â ±
re ck
 rob ust
mer ce
 P ant
 N on
 A ud
m ay
 end ors
 jur is
 spec ulation
M AN
 de emed
 cert ific
 dro pping
 Tal iban
 h iring
 G ib
 Ch ange
ere nt
 Sing apore
wh ite
 integr ated
 N orm
ree k
Ã³ n
 Per ry
 pres ents
 av o
 F A
res hold
 guarant eed
 Gi ants
 le aked
f unction
 pack ages
 ep ic
ut er
 susp ension
g ly
 challen ged
 pleas ure
 pack ed
à ¸
 check ing
 K ings
 b its
 sl ot
 rad iation
 ar c
 A ren
 pro st
 U r
s or
 bomb ing
ist le
N ame
 sc ar
H o
G l
v as
 p ul
 US B
Ä 
 produ ces
 N i
d f
 5 9
 fail s
 def ended
le e
 6 6
 Red dit
 H oly
 develop ments
 R est
 simultane ously
m ble
 bacter ia
 block ing
 L ater
iz arre
 attract ed
app ropri
 fig ured
oph ob
 all iance
 researc her
d am
 taxpay ers
vi ation
 Enter tainment
 L og
 N one
 pat ri
 hunt ing
 cor rel
 J eremy
 host s
 Russ ians
 acknow ledge
 exam ine
 c inem
book s
wh at
 vari ables
R ight
 o xy
 O pp
 F uture
 Sp ir
 H ung
en ess
P al
 form ula
D R
 B or
 6 2
 j unior
ing e
AT CH
 Chair man
J P
 publ ish
 T ower
ate ful
 J un
 D ak
 bre ast
 Pol and
 Stud ies
 Ukrain ian
ades h
 under t
 edit orial
 fl ights
 accur acy
 fl av
 shel ter
 l os
 impact s
 H ug
 surprising ly
 sol o
Bl ack
 ra ises
 burn ed
T O
ER E
ick ed
 r ic
 in du
 disag ree
 acknow led
 dist ribut
 ang le
c ular
 W ould
ard o
 qual ified
 decre ase
 C PU
 ev ac
 ev olved
 C C
 fl avor
om ic
od ge
le ading
 un necess
im ir
 s id
 as semb
 ign or
 con secut
 v it
 court esy
 O R
 MP s
 product ive
 B and
 bl amed
 V lad
 acc ord
 T otal
 v oc
 K a
 f ingers
 H IV
ethe less
 expect ing
lu ct
 transfer red
 R angers
 ident ical
 en abled
 vis its
 expect s
 l ane
ol as
et her
 Stew art
 G ill
D E
 v enture
 Gr iff
M on
 sh ops
 depart ure
 G ab
o is
 repe al
 motiv ated
 kill er
O ffic
 agre ements
 F a
ac o
 organ is
 g ig
 conflic ts
th odox
 sc ared
 forg otten
M B
ud d
 nation wide
 Ed ition
 influ enced
 B C
 P ope
 J enn
 crit eria
 occup ied
 tra iler
 rank ing
  `
 Th ings
 stri p
 T R
ern and
 Sh ould
 back s
 tele phone
olit ical
 occas ion
ar o
 sn ap
ah oo
 N O
 function ality
 Th ink
 anal ys
 check ed
 anim ation
 household s
B ook
 Mod el
look ing
 algorith m
am ents
 promot ed
 impr ison
 ou ght
 explicit ly
 re build
 bab ies
ik h
Tr ans
 t anks
 do ct
 rele asing
b at
ri ke
 b ases
For mer
 inst ant
 stat ic
 Pro duct
 privile ge
 More over
 Jer ry
 met ers
 War ner
 entr ance
id al
ul ating
 stat s
 bul let
 out f
 un re
 investig ated
 to wer
B N
 contin u
 sen ators
â¦ .
 B ir
Th ree
z one
s ome
 app lies
 B eck
IL L
 U b
 p y
ica id
iz er
ou p
 Egypti an
 Christ opher
 Stand ard
 inev itable
 uncertain ty
 C old
 prov ider
 influ ential
 m art
 mod est
 Que ens
 l ens
 ch ips
bre aking
 susp ic
 all y
 poss ess
 infect ion
 dest ination
 6 3
 M ap
for ward
i ol
be ing
 T am
 sole ly
 sc rew
" ,"
 bel t
 ins ist
t own
s uch
Y eah
 N iger
 t ent
B re
 polit ician
 Al aska
 transp arency
 invest ed
 Play Station
 sing er
 imm une
 Ott awa
act or
 prov isions
  icon
N G
 hand led
ag ine
Ñ 
 uncom fort
 Olymp ics
 St ock
 Louis iana
l as
 impress ed
 J en
 O il
 in box
ress ing
 oper ator
 L incoln
 Nether lands
unt u
if ier
G ood
is hers
 similar ly
 lif estyle
 head lines
 ball s
rif ice
il ation
 bo ards
 Un ivers
at in
 dis abled
 J ane
 oper ated
o ft
 regard ed
amp a
 D E
 launch ing
 re luct
 int im
in f
 Stan ley
 ins ur
 Tre k
d el
_ __
 in aug
 H ad
 photograph s
 Comm and
 M other
 B ab
 sa ke
 ke en
 det ention
 consecut ive
 Af ghan
h is
c itation
 g ym
 Un like
 b ol
 d iver
). [
Ob ama
 prosecut or
im b
ix el
 prosec ution
 su ck
ke ley
 earth qu
 le an
m illion
 E b
ut her
 ro lled
 h ub
 Sim ilar
ist ance
 k iss
 w ise
us on
 Bl ood
 F O
th ur
 B an
 T able
S D
 Capt ion
 Mod i
 bul k
t arian
 inter cept
? )
angu age
 Hamp shire
 m ales
qu es
ll or
 t ears
 traged y
 Cor p
 ch ocolate
 po et
ter y
 pres erve
 m ouse
 gu idance
B o
 j et
 Be ing
ass ion
r ition
 F ather
 le ak
 Philipp ines
f irst
ac ular
 ad ap
ra v
ur ches
 b ags
 Fore st
 S everal
eral d
 dest ro
 f asc
 exam ined
 sy nd
 accept ing
ch i
 miss iles
F urther
 b eneath
 particip ating
c ard
 el abor
 neighborhood s
 Ty pe
 ne ur
bl ock
 S port
u ating
 abs urd
 Stan ford
 compe lling
 reflect s
 compl ained
 1 000
 j ihad
 b other
 lux ury
 Victor ia
g t
 contro ller
ant e
 Ed it
B ar
ist a
 G ard
ar med
D own
 M orm
 R ap
 N elson
 Mar io
c ribed
 H ans
b urn
 Medic are
a ud
boy s
I O
 en for
 f its
 Med icaid
ef ul
 in her
enc er
 < /
 K night
 Sc he
 cons ists
spe ed
o or
 p ose
 signific ance
 po lling
 occas ions
 sto pping
 post er
ust ing
 Ab u
 C R
off s
 Tok yo
 Rub io
ou b
 real istic
friend ly
 ex cuse
 wire less
 b one
Am ong
D C
 T el
 Pl ace
 t ension
 accompan ied
 see ks
 back up
E ach
 rese mb
U nf
 mand ate
 the ater
 ass ists
 m as
 Contin ue
 poss ibilities
L O
f ers
h uman
 the oret
n r
 sub tle
 b ump
or ate
ay a
 bet a
 Qu est
 accus ations
 De an
 cook ing
 L ocal
 adv ent
 Ch ampions
 F ront
 p ad
 supposed ly
 Snow den
 emphas is
 sust ained
Per haps
 Mal ays
 beat en
 P ear
 S EC
c ott
 P i
 d ressed
 a wards
 project ed
v ised
 Ch ron
 Not hing
 innov ative
 Every thing
f ish
 N a
 affect s
B el
 L ad
it ement
 prevent ing
 pol ar
 construct ed
 Cl oud
 f ron
 long time
 f ed
 er u
ri k
 Fl ash
 t orn
 S ection
Follow ing
ber y
 fuck ing
 g arden
R a
an im
 Organ ization
 3 60
il st
 oper ators
 con vert
on ed
 dr um
 man ual
 Fin ancial
 out standing
 S N
 mortg age
 Ham as
 rec ession
 ent ity
 n u
tr ack
 M ind
 pass word
 Py thon
 w isdom
 So ft
 document ed
 g ut
 N ature
 W inter
 trad ed
 Ste am
p ic
 def ect
 N ich
 Jim my
 I V
 occup ation
 speed s
 g olf
 Kurd ish
 f ut
 old est
 document ation
 V in
 pra ised
 favour ite
 Fil m
R o
 resident ial
b ound
 spot ted
Ð ¼
 cop s
cent ury
ot ion
 reven ues
ug by
 V ar
 lay ers
 Th ird
 wal ks
 Comm ons
 interact ions
 sur ge
 Patri ots
act ed
 P ur
 E nt
 aw ful
 6 7
 b icy
 pan els
 calcul ated
olit an
 cir cuit
 
 experim ental
 6 8
 renew able
 6 1
 myster ious
 autom atic
 re produ
any ahu
 d irty
 Other s
 th reshold
m ad
â ¬
 t ale
inc ial
 tr ains
 dro ps
ast e
 en su
x ide
 deal t
 N ash
 review ed
 G re
 pain ful
 gl obe
 it er
 C itiz
 p our
 F le
 tri ps
 Air port
I ns
â )
 Way ne
 cle ared
lar ge
 earn ings
~ ~
i able
b en
 cross ed
 administ rative
W ar
 graph ic
D id
 r iders
iz ations
 E mer
ell o
 r anging
 co in
 liber ty
 Tr ue
 b izarre
ne g
 l ady
ut o
s ize
 N ik
 displ ays
 sec ular
 rob ots
 mother s
b et
 host ing
 ambit ious
 P ir
 198 8
 res erve
Ch ina
ail ing
 De ep
 pred ec
j an
/ .
th al
 conver ted
is ive
 S ac
 Mc Donald
B en
g ate
M art
ow der
 tiss ue
j amin
 Mur phy
 C ON
l ink
 Lar ry
 C L
 A FP
erg uson
On ly
w ind
 F OR
 Sum mer
 creat or
S y
k ind
 res ort
 address ing
 s ons
Ã ¥
d l
 B ah
J e
 safe ly
 h iding
 att orneys
 an ch
 t um
 devast ating
 explo it
 sleep ing
 Red s
 cross ing
IC E
r ons
 p ension
in st
 sp ray
t wo
 Gr ant
 restrict ed
R O
 arrest s
 w ore
 scrut iny
 unf ortunately
op en
 bur st
 t u
w ords
 libr aries
 S E
 depart ments
 mur dered
P s
 ret ain
 E ffect
com p
 compet itors
TH E
 wh is
 al ign
ach ment
 ins ert
 D rive
 m m
 newslet ters
be at
 fil ing
k ward
 inf ant
 adop tion
 M as
 D al
 newsp apers
 product ivity
 to ss
 re ign
 build s
n m
 Sing h
cel ona
 B ea
 pregn ancy
 over night
EM ENT
 appear ing
 indic ation
 ear ning
 publ isher
 dis g
i ate
 rec k
 view ing
 comb ine
sh ore
! !!
 d uties
 Man ning
 f ishing
 reflect ed
is ode
 uncomfort able
AS H
 Mag azine
 m unicipal
 Further more
ov en
 m ic
 Wh it
 N ative
 P oll
c ount
 hor rible
oy d
ari os
 contain er
 chemical s
b ably
 rel ie
 c ave
 separ ated
 sophistic ated
 r ivals
ag g
 re wards
 vi able
May be
 pr icing
d ata
 act ed
on ing
 C as
 Wik i
 rel atives
 â
 win ners
 Mad rid
an na
 Ph ys
 prepar ation
 equ ipped
 limit ations
 Ch rome
sel ess
 sl ide
 198 4
 complex ity
 among st
n z
 mechan isms
 comm od
 param eters
 F ederation
Che ck
 fire arms
pl ing
 pe er
 car rier
 or g
get s
 h int
 suggest ions
 N az
 delay ed
te ch
X X
 an onym
 expl oring
n amed
 me ets
 HT ML
 to b
 tou g
 198 6
 Tai wan
 cur ve
 light ing
es c
ern el
 start up
 r itual
 Coll ins
 Cl imate
 intell igent
Unf ortunately
 celebr ated
ist ing
 ab und
 ce ase
 He art
 E r
ab out
D i
 quiet ly
 ens uring
ul ations
 reb el
 L uke
ud ge
 night s
 collect ing
 det ained
 transl ation
 world s
 g host
 McC on
om er
prof ile
 be ef
 employ er
DA Y
 or ange
 in hab
 D VD
 rad ar
 Le vel
AT ED
od a
ous es
are r
 install ation
 E C
 S ex
 deliver ing
 design ated
 co ins
 m igration
 deb ates
 ) ;
 pl edge
 Mel bourne
ard ed
 cat ast
 Bl ock
 ca ution
 gr ants
M in
 off season
ell er
 not ably
 bu gs
Mich ael
m ons
hy th
 table t
W orld
 them es
k h
 deleg ates
 gold en
Ad vertisements
 cour ses
ond s
 count less
 Eag les
 grad ually
 witness ed
Wh ite
 Cub a
 comm ands
les h
em bers
 Coal ition
 N S
 t ends
 viol ated
 mean while
 O p
 de le
 psych iat
 K y
 P od
 dem o
H i
 B urn
ll i
 comment ary
 for b
 Swed ish
 ann ually
wit zer
 observ ations
 p ending
F S
 st ir
k m
 N ap
 Exp ress
arent ly
 He at
 G h
 question ing
 clim b
er to
op les
 P el
 f ires
 S to
20 11
n atural
 lapt op
 T oy
renc ies
 pat rol
 imp ose
 A y
 t a
 Mar c
 Com put
 S aint
 D omin
C i
 repl acing
med ia
 s co
 se eds
 cont ents
 F er
 pre view
 fr ustration
 L ady
 Marsh all
 W ard
 discipl ine
 supp lement
 poor ly
or ical
k f
 ver ify
ude au
 com ed
ond a
 gra ve
comm un
 t empt
 Pro gress
i ors
 pra ise
 bath room
 Ar ts
found er
 f urn
or ia
 Pe ace
 act ress
 as pir
es is
 expl oration
 Ron ald
 happ iness
 cru el
ers ion
 L ions
u ates
 prevent ed
 Bl ake
 ch amber
 st arter
 H unter
 pray er
 cult iv
ro c
 bond s
z es
 perm itted
 inst antly
 ven ue
 oxy gen
 al together
ra it
 L en
M edia
 are na
 amb assador
. ),
 Ber keley
 7 6
 disapp eared
 plan es
le v
 Sm art
 techn ological
em in
Rep ublic
 met h
ac cept
 comp r
 Be at
 suggest ion
ig inal
 D er
 part ially
 agric ulture
The ir
anc hes
 C rit
 dr inks
 the ft
oc ur
 comp osition
 Camp bell
 s izes
 St orm
 inc orrect
 F R
om ach
fl ow
 protect ions
 Rog er
 Cra ig
E X
 Environment al
 Christian ity
AT ION
ier re
 vacc ine
 Hawai i
 Add itionally
 log ical
 par ks
 sty les
 M uch
 suppor ter
au cus
 honest ly
l m
 al ike
 C ry
 tob acco
 NC AA
 > >
 T a
 M and
 d il
 sum mary
 to ll
 fle w
T witter
 R ow
 adv ised
 Kick starter
 heart s
 In n
 w ound
 L aur
Le aks
 appoint ment
 For ces
 eth ics
 K al
 Q ual
 st unning
 B ol
tt es
 Que bec
 cap ability
 Mit chell
olog ically
 transm ission
 enter prise
 ess ay
 f et
 Vlad imir
 pro l
 Th rough
 met aph
om ed
 Mot or
 pros per
 p owered
 Spe aker
st ring
alk ing
 react ions
r ange
f ile
 elect rical
 Man ager
 Ed itor
 H uff
 st ressed
 Eng ine
 fac ulty
ur ities
 m akers
 sh r
 Cor ps
 sw ord
 Aren a
 ce iling
 der ived
 Re id
 F ro
ot ics
 se venth
 celebr ation
 ha z
 press ing
 argu ably
 draft ed
 r ice
 U I
 mount ains
 c rown
 ra id
U D
 G ene
w d
on al
 R T
 J ess
m ap
form ance
 G a
st an
 travel ed
t or
p ire
 Or ange
 N ame
 d rones
 S essions
 compl ain
 Commission er
 Ox ford
 b ip
er i
w id
 re ply
 dep os
 end less
 Br us
pie ce
 bu nd
 aw kward
 app lying
witzer land
h ill
 sac rifice
 accompl ished
( '
 Wat son
lect ed
 shoot er
 bub ble
 J u
 T odd
ast ed
iv an
 we aken
 A the
p ur
 Fly nn
T IS
T ake
 mechan ics
at re
 as h
ore r
 assum ption
g ov
on ia
at al
augh ters
 advoc acy
 host ile
 g reet
 bre ach
 reveal ing
g roup
 respect ive
 dam n
hand ed
 scr atch
 c am
erv ice
S everal
 expert ise
 dev oted
 Dak ota
 c ous
 M erc
 Park er
 B enn
H ave
 Ind ians
 M eg
P I
 cir cles
 an arch
 strong est
I d
ip her
 focus es
 R u
w all
 sh ocking
Sec ond
 cal endar
 bit ter
 har vest
 B aker
 aud iences
 R h
 citizens hip
 m u
 buy ers
ag raph
 Med icine
 tr ucks
 c ats
 part icles
 l one
um ing
 acqu isition
n or
Ð ´
g ary
con duct
 comput ing
 fr ank
 sa uce
g ments
 R ound
 ep id
 Law rence
 unnecess ary
 distur bing
 direct ors
n on
 Mod ern
M M
m are
r w
re v
 M A
 F ig
 pen alties
s ized
 kid na
â 
 sp y
 long est
ud ed
 respond ing
 K as
de velop
 Tem ple
 D or
h alf
H ar
 marg inal
 E D
and ed
li ver
 histor ically
writ ten
a ults
 ent ities
 Mor ris
 D ate
 ad vertisement
 add iction
V al
 H us
 pl acing
 be ars
oc us
B ig
 contribut ing
 bound aries
 qual ify
by n
 y ard
am ine
 F erguson
 understand s
 d uration
 K it
 quant um
 Hot el
? '
 sh ake
 frustr ated
Ù 
 ad j
 Leg isl
 oper ates
claim ed
ment ed
 hack ing
20 10
 orient ation
bor ne
 Bar celona
op t
H ist
 P rom
ru p
id ate
 His pan
ath on
S em
G iven
spe cific
 Rec ords
R T
 198 7
b rew
ast ing
 R y
 dist ant
 F ight
 motiv ation
 I an
 fast est
 gro cer
 pain ted
 femin ist
O ff
 Net anyahu
 Y ang
 U C
lim inary
 line back
mind ed
 F CC
 sa fer
 d ensity
 overs ight
out heast
PD ATE
 experi encing
 n ode
 contro lling
 count ies
 tun nel
 Saf ety
ay ing
 m ild
 197 9
 v ague
 F if
 R ain
 div ide
 t ill
 Jac ob
 ult ra
c ode
 trans formation
 Sw iss
 direct ions
 L ie
 rece ives
 en force
Â ·
 B art
 u gly
F igure
 Mc M
 S ong
 R oc
 illeg ally
 imper ial
 cir cul
 6 9
 prob ability
com ed
 Ch allen
 int ensity
 comp osed
 enjoy ing
ab ling
bo ards
IS T
ist ani
 d ign
 Abb ott
 mand atory
 7 7
 achieve ment
E uro
 ped est
im s
 c rop
 ins ane
 agric ultural
 Again st
 as c
 Bloom berg
 bal anced
 T ea
 condem ned
 And re
ry ption
P at
 H end
 198 5
 res idence
 distin ction
 emer ge
 prot otype
as i
 p or
A tt
m un
G M
 w ings
 Bl og
m atic
Â 
d ow
 tou ched
 z omb
 to ile
nn y
 R ice
ac er
st ant
 initi atives
 o m
 Build ing
 sc ary
rim inal
 p ays
 exch anges
 ide ological
U s
 D J
 st omach
 l yr
oty pes
d ad
 susp icious
le ton
 scen arios
 f illing
ro t
 manufacture r
 M itt
 Ben jamin
  Ø
M ed
AC K
 T ampa
 Ev ans
or ient
 E lection
 m i
 const rain
 al arm
 respect ed
P ar
 rot ation
 space craft
 press ed
 t une
 non profit
 pe ers
 acqu ire
 c ake
b ecause
gu ard
 cro ps
 l anes
 p ink
M en
abet es
 R av
UT ERS
 treat ing
 high way
 La ure
 comple tion
 prior ities
umb led
 subsid ies
 explos ive
 res igned
 anim ated
ro se
w hen
char ge
t it
 sla very
 ear s
 difficult ies
 Ar ctic
and y
 B eng
 is lands
ac ies
 oper ational
 Â ©
 Co hen
ow ell
 free ly
 fr ight
 ch urches
 Ch ance
m other
ew s
 sh orter
 form ally
he alth
s at
m ac
 appro ve
 M obile
 reserv es
de v
w estern
 qu otes
 des ired
 rif le
 D om
v ol
 R io
ock ets
 respond ents
 particip ated
u z
 ex em
 Br andon
 b ones
 crowd s
 discl osure
op ing
ug s
m art
 Ste in
 R ail
ic ut
 F igure
 L ea
our ces
iv a
 A wards
 19 30
 worth y
 volunte er
 s her
 mechan ical
 T s
 tut orial
 sec ured
 cle ver
 jud icial
 re hab
 att ributed
 over d
 rum ors
 h ier
 cr ude
au c
 S aints
 Ã 
 mon etary
 deliber ately
 Cent ury
 cont rad
ir s
 cult ures
 ro cks
 anticip ated
am an
( );
 econom ies
 K r
n ie
 pri est
E ng
 McCon nell
men se
 H ann
 b ass
 Rod r
st ory
 in appropri
at ile
S et
 K yle
 inc ons
 elder ly
ol o
 gr ateful
 consequ ence
 j okes
im ens
 her itage
co very
 teen ager
 abs ent
 spread ing
 ser ial
 pan ic
 flex ibility
 aff air
 dis par
 altern atives
ici ary
 to ken
Wh ich
 z ones
 n aked
az y
 decl are
 Cir cuit
um m
 vir al
on in
 M om
 C row
gl as
 attend ance
 t urb
 advant ages
ab e
 trig gered
 T erry
 Alber ta
act ory
product ive
D ata
 bu zz
 techn ically
 re aches
 B uck
 D raft
 t ensions
 S witzerland
 p osed
ip es
 detect ed
ll ers
 kn ocked
su its
 design ers
leg raph
 K erry
 G erm
b art
B est
 pre val
val ue
 E arly
 I C
 T reat
cont rolled
B L
f il
 Dou g
VER TIS
 P ok
 K arl
ur i
 Brus sels
 Art icle
pr ising
 Post s
 instr uments
ec onom
oc c
 T un
 satisf ied
 s ends
 process or
 wra pped
 disp os
 B E
ul pt
 P ed
are ttes
 exc itement
A h
e or
A ust
 green house
 f are
er in
 enh ance
 shif ted
as m
 equ ity
 break fast
 flu id
 Pu erto
 L ynch
 ste ep
A c
 do se
 flo ating
 remind ed
 harm ful
 Part ners
 tra pped
 Ant i
â ¢
 transp arent
urn ed
 F ind
 wel comed
K ey
 app eals
ock er
N orth
 Camp aign
 Frank lin
 disapp oint
 7 3
st art
 n ull
 res olved
 su itable
 legend ary
r idge
 mag ical
 ref using
 ex tin
go vernment
 br ains
 Gr ay
 avo ided
 gr asp
b les
 7 4
 Th or
 port fol
 ident ifying
il ateral
ar ia
 fit ness
C urrent
he e
 decl aration
 ann ouncing
 ab ol
id d
 fin anc
¾ Ð
 Kir k
 Buff alo
 h orm
 prov incial
P o
 W ol
 I ss
 Commun ist
fe ld
 ha bits
 rus hed
 C lear
 M D
ortun ate
 imm igrant
d ale
 mut ual
 emp ire
 hat red
 Bar ry
 M aine
oc ate
 l ib
 hy brid
 S ep
 dim in
 assum ing
 minor ities
 optim istic
udi os
st e
l b
 edit ors
 excess ive
 fro zen
 Phil ip
 bel oved
 B ou
 tempor arily
 conduct ing
 Pro t
 presum ably
 imag ination
 deploy ment
 trust ed
 
b est
 supp ose
 V ery
 ear liest
st ock
 as sured
ank ing
 0 1
A V
 edit ing
 Christ ie
 st ocks
 Be h
 wh ites
x a
 â
 im mense
ot ton
 Rog ers
 bar riers
 G PU
ra ham
 pen et
 tour ists
 dec iding
 S ide
 head line
f ox
 throw s
ut ical
 cast ing
 B ears
se ud
 wor ship
qu ality
o j
val id
 Tr udeau
 infect ed
 dec or
 m ixture
 M ov
H aving
b age
 spark ed
 ve gan
v als
 social ist
 butt ons
 r all
p ing
 wa ited
 dam aging
 J ets
 struct ural
 F un
 grab bed
 War riors
s ky
 defend ers
s ur
iz ard
 colle ague
 Occ up
r ust
 con gress
 colle ges
is en
 m amm
 crypt ocur
 b io
 un ity
 athlet ic
iff erent
f ly
d an
ed e
 arm or
 O scar
 H P
 tr ash
 plan ets
 Ch uck
per or
 Jeff erson
ne red
ig hed
au kee
 cart oon
 be ll
C or
ig ers
 f ru
 l ake
 Br ady
 Te xt
? â
 compl iance
 Sc ar
 soc ieties
 spect acular
 F ried
 des p
 pur suit
 wh istle
 click ing
 a uction
 Liber ty
 7 8
 tradition ally
 att itudes
 E V
k ar
 surviv ors
 approach ing
 wid th
per ial
c or
 n ick
N ever
 ex ports
in ates
 observ ation
 disc our
or ph
 Turn er
 A th
 hum or
 res on
 Wik ipedia
 legisl ature
 bar rier
 Ke ith
 H ide
s ign
V ideo
 Is lands
 ch ampions
 dec ides
 P enn
 purch ases
 Gu ide
ac ent
B R
Cl inton
f old
 Columb us
 P ad
 B und
ous ing
 pure ly
 lif ted
 det ain
 sec rets
 ess ence
 te xts
 Cor byn
 pursu ing
oll ar
 Sm all
 inter rog
 U ntil
 Har vey
est one
 Mor ning
 there by
 in sect
h al
 rec ount
st orm
 G arden
t ics
 under mine
 eth ical
be it
 7 1
 w ishes
 ur ge
ors es
 grow s
p op
 the rm
 regul ators
p ublic
con tin
AD VERTIS
ation ally
b ig
IV E
 D ub
F ree
 t ang
 meant ime
 ag greg
 Y ahoo
p owered
 don ated
 E le
red ict
 off set
po ints
 t ong
 econom ists
 liber als
 treat y
T om
 ex empt
 l aser
w aukee
 ( )
 v ibr
 remind er
 C u
z i
sec ond
 met ab
 rom antic
 squ ee
 bott les
 N atural
 passion ate
 p ist
on er
 fl ip
 Nor way
 Pr in
s chool
 fail ures
ag en
keep er
 WW E
 inv al
w en
U M
 Un iverse
 emot ion
 W orks
 out er
ur se
 break down
s g
 a est
 E X
 F DA
 7 00
 ident ification
 Mad ison
un ct
 F u
back ed
 adm its
 t rop
 div orce
 sac rific
al og
 perm its
 Cam bridge
 decre ased
 conf ig
 M oney
 t at
 D NC
 8 2
ab il
g ian
] :
 C orn
own ers
 gener ous
, â
 after math
 exec ute
id ays
it ably
 def ic
 comp ly
 draw s
C NN
 E ss
 C rown
p ack
 wal let
 comp aring
p ace
 unf ortunate
 n ons
 arri ving
t ail
Ñ 
ount ered
D B
 dis orders
 Ark ansas
 bl ess
S ch
 vari ation
 str ain
 sl ave
 M ilitary
it is
 enh anced
p arent
ab ul
 helicop ter
 Wiki Leaks
ll o
00 1
 Gu y
st ore
 feed ing
 fem ales
L Y
 hack ers
 E li
 wind s
 account able
ig ma
 conclud e
d ig
 cour age
th a
ar ound
 Dep uty
 T an
U E
 F isher
aw s
 inter rupt
 RE UTERS
 treat ments
 Rob in
sa fe
 cre ep
 batter ies
ad vant
ur red
 Mem orial
 Ne il
 Connect icut
ol er
 J ake
rop olitan
 contact s
d irect
ut t
 s illy
ple x
 last ed
 mass es
 Pol ish
 Commun ications
 comp ound
per t
 sequ el
 retail ers
 U RL
 correspond ing
 destro ying
 lack ing
 d aughters
 M ission
 f ib
 wond ered
 Ty ler
 enc ountered
vis or
 econom ist
 Mar g
 Fant asy
 capital ist
 R oom
 re un
â ³
n ormal
 licens ed
f ive
 am pl
 S M
Ñ 
iz able
L ink
g iving
 d ys
 vert ical
 war fare
 I RS
 comp os
s ource
 c ub
 found ing
 Venezuel a
l ib
 ag ing
j ar
 Mar ia
 statist ical
 gif ts
h ave
ir able
 in hib
 sl ower
 adv ances
 Pak istani
 gra vity
S outh
 H ud
 f ierce
 Cons ervatives
 care ers
accept able
 Sh a
 B ec
are st
 g rip
 198 3
 stab il
 l ip
 vill ages
 intent ions
 Spe ed
 organis ations
D ep
 aw a
 separ ation
 king dom
 author ized
 Down load
 Th under
 Luc as
 count ing
 Ad vent
 strengthe n
 govern ing
 warn ings
 dis pro
  Ï
 Play ers
 198 2
 St udios
 far ms
p ac
 diagn osed
 Mer kel
 taxpay er
 commission er
 Sus an
 lobb ying
air y
 Spir it
 dem ol
 clean ing
cont ent
U sing
 transform ed
 stre ak
 Ref orm
 suspic ion
 ele ph
 Holl and
 c odes
 contin uous
it ative
 fract ion
 b oring
 B os
 H ub
 Pri ze
 Sci ences
 cons iders
 screen ing
 mill enn
 B ear
 gam ers
 M M
d rop
 Res p
T a
U I
 dam ages
. :
 C z
ank a
 N ort
 ten ure
O s
 de ce
ard less
ear chers
 D ra
im age
 inclus ion
 fun eral
 f ict
 f ence
 inst ruction
 a ired
 sens or
 St ars
 cl uster
 F at
1 10
W A
 exp ed
raf ts
 traff icking
 fe ared
ank ed
 tr agic
 P interest
 P ap
 over l
 work place
 N av
 inv ite
sh irt
 cred ibility
 te ens
 mon sters
 D anny
 collaps ed
pl an
 just ified
 ' '
o ffic
 he nce
 hypot hesis
im ation
 K le
 den ial
ad ows
 organ izing
 
 8 8
 The atre
 gr ace
 Morm on
 K rist
 sp awn
 With in
ue ller
 boy friend
 ste am
 civil ization
 novel s
ps y
 ur ging
 interf erence
 Islam ist
 doub led
 wrest ling
it bart
 th irty
Ã £
F our
 Cons ider
 real m
clus ive
ham mad
 mag netic
 exp end
 c ort
 belie ving
 r ib
w alk
 out right
 benef icial
In ter
S ign
 ev angel
 soon er
 Pet ers
 f t
 br anches
 dec ks
 cry ing
M et
 comp iled
 recru iting
T ION
 su ed
oll ah
 B h
form ed
 en ables
i ar
 invent ed
 r hyth
P ress
co ins
 rus hing
 le verage
 m ock
b ie
 elim inated
 sid ew
J an
 spons ored
ill o
r us
ol ine
 unve iled
op ard
 tra its
 be ers
. â
 Ub untu
 Charl otte
 Br and
 Stud io
 D est
 ple aded
 routine ly
 tem plate
 F el
g al
ch a
ex us
 al i
 A w
 lab els
ADVERTIS EMENT
Ref erences
 eval uate
 B ash
 C ut
 T D
 p ig
 solid arity
 agre es
 tem ple
 Lt d
 breat hing
ab l
 album s
W ork
 b ust
 med ian
 p izza
 For mer
 Brad ley
st age
B et
 n an
 H ills
an ium
 D rug
 lay out
 Hind u
 l au
l ie
 shif ts
 incent ive
 direct ory
i u
 V e
au x
 Gl ass
â 
 C arson
f ight
amp s
 magn itude
l ive
 jump ing
ast ically
 h ill
 smart phones
rodu ction
ha ul
J ames
 d umb
 O liver
Is lam
 compar able
M al
Gener al
 clim bing
 S alt
ah a
 : :
 N in
 Indones ia
 arrang ement
d v
 whe els
 path s
 termin al
 A B
 pil ots
 s na
 midfield er
dri ven
 incent ives
 Pro du
 except ions
 spec ified
 adequ ate
 int u
 coc aine
 D isc
A lex
ace utical
 K am
US A
 c ra
 psych ology
ter ror
c rat
 pe oples
ord able
 pre liminary
 c ents
 M ulti
 C ass
arth y
 Sen ior
 L ED
 r ab
 part ial
h ome
 Ver izon
 Sol ar
 gl ob
amb ling
 Ver mont
 scream ing
 disag re
 lyr ics
 vis a
 d io
is he
 B JP
¦ â
 transl ated
H ill
S M
 firm ly
 Trib une
 gen et
 reg ards
 connect ing
 counterpart s
 J oy
 ac res
200 9
 cr icket
wid th
G od
 ch ains
 appeal ing
 G onz
 me als
1 20
b ull
 Count ry
as ant
 Friend s
 wild life
F ig
 swe at
Ã© mon
o ons
 cap s
 T ob
 So x
 S ad
th an
 trad itions
 ind ict
 threat en
 P ence
 creat ors
b ul
Â £
 inter ven
 d ivers
 vac ation
 sens ors
 like lihood
 Book s
Ã 
 determin ation
 comment ed
 tri ple
St ud
umb ling
re nder
 un rest
 count ed
 bet ray
 match ing
iv ic
 prec ious
 pl aint
 P AC
 an ime
 Belg ium
 Prof ile
 F arm
E v
res a
 J a
 par agraph
 sc ulpt
N ET
M ake
 she er
 Leban on
ri en
 M O
 invest or
C hr
 le agues
 endors ed
 licens ing
 kill s
 accur ately
 Ar thur
 motor cy
vi ol
 to y
 shif ting
ip h
 tw ist
Russ ia
 AM D
Ch ar
 N ixon
 Cow boys
 B Y
 fold er
he w
 un e
ias m
 avoid ing
 comp assion
her ic
cc a
 prohib ited
 C her
 19 20
 Brazil ian
 G arc
ti le
ul ative
 Argent ina
 account ing
U PDATE
 sp are
 proceed ings
 V A
 Eb ola
 r iot
 length y
if ting
 institution al
 sl aves
 Univers al
 Polit ical
 dub bed
ch ing
ri ving
m aster
 We iss
 R ams
 in mates
 ment ally
W H
 tr ace
 sh aped
 fundra ising
 gr ain
 touchdown s
 over look
 celebr ity
 198 1
 she d
pe ople
 willing ness
 mar ine
 ind irect
ke es
 H at
k ers
W est
ale y
 severe ly
 gener ating
 establ ishing
St art
 S eg
 should ers
 negoti ate
p se
O ct
 d ivid
 implement ing
 renew ed
ak u
 Ser ge
 p owder
OS T
l n
g at
 Fin ance
Ty pe
Euro pe
 consum ed
 swim ming
 b ite
 creat ivity
 Q aeda
 rel ating
itt y
â 
 mon op
H D
 se ctors
w art
vers ion
co ver
et ing
 certific ate
Å 
 assum ptions
p ath
ur l
f ix
ubl in
 interact ive
 he sit
l ash
 T ell
 trad em
 obs erve
ios ity
S ometimes
pe red
 accomp any
 G er
S ON
R ich
 aver aged
 ref lection
 Gl enn
r ament
 h ij
 bra ve
J ack
 sa il
 M ust
RE AD
 G ates
 Ph one
 roy al
 7 9
ull ivan
 affect ing
Ñ 
 Int erest
l is
oc aly
o ard
 fil ming
 Bro s
out ube
 wor n
qu al
 hop eful
 E mb
 Mar co
 black s
 Ar men
ant o
 ind igenous
 earthqu ake
R ober
D ay
 t ub
 un h
 subsc ription
 R osen
 mount ed
 dis k
 consult ant
 adapt ation
 detect ion
 A ve
 clin ic
 An ne
G reen
 compat ible
 Mil waukee
 Cl ar
 sl ip
is ible
ac ious
 rec alls
ah l
 fu els
 corn ers
 O bs
olph ins
 special ist
 rep ublic
 High way
 weak ness
 esc aped
t able
 di abetes
 L ane
 196 7
qu er
 1 30
 wood en
 predict ions
 M ason
 tri umph
 B ond
G erman
 adjust ed
 problem atic
 less er
 adm ission
 far ming
 â
 liter ary
 j ew
ir k
 trans cript
 p ub
 mar ry
 m aker
Chr is
 law suits
 aggress ion
 orig ins
 Col omb
erv ation
B rit
 he aling
 C os
id o
mun ition
 Bull s
 contin ent
 Germ ans
n en
t at
 un l
b ad
 h oly
 Dou glas
.. ."
 C reek
 where ver
 music ians
 C elt
ec hes
pr ing
 v on
ur u
 res cu
ol utions
 Gold man
 Ð ¿
 R C
 under way
 tra p
e ast
 mort ality
ced es
 gr ay
 desc ript
k g
 aud it
 Re ading
 H um
ne ath
 eval uation
ul ent
G ame
 1 10
 K ind
 ab used
 Ste vens
 St re
 vulner ability
 Gall ery
 bankrupt cy
 del ays
 Parent hood
ah awks
 super hero
 le ather
iss a
i ots
 ve to
 sh ore
 sk illed
oca ust
ruct ive
bl og
Russ ian
 tim eline
 inf er
ig nt
M I
 le aks
 gent le
 B B
pp o
 inc omp
Mus lim
 sw ift
 resign ation
 Bu y
 Sp ider
 su its
d ays
 mis leading
 in ch
 w reck
 Bron cos
 18 0
 organ ize
 cycl ing
z an
 S W
 Super man
 sher iff
au er
 dark ness
 J ar
ble m
ail and
oot ing
 Bern ard
n ik
 after wards
ather ine
 res ume
 support ive
 se iz
 R ab
ere r
ul um
 shoot ings
 S omething
 inappropri ate
 form ing
 19 40
 behavi ors
 laugh ing
se lling
P N
 altern ate
T unes
iss ance
d iction
z b
 test ified
 Is a
 196 8
 pract ically
 un anim
 Bud get
B ay
 broad band
 ver dict
 thorough ly
 cr ashed
 T ry
 F ab
 ins ists
 teen age
 dis advant
umb l
row th
RE L
 doct rine
 enc ryption
 L ock
 s ie
 Ex change
 Joh nny
act ic
 loc ally
 Vik ings
 out break
 k ernel
C R
 exha ust
 off shore
 sound ed
W rit
 exp ose
 ap ology
Americ ans
 Q B
ian g
L S
 pre st
C OM
 autonom ous
Å ¡
 cost ly
 heav en
 pro x
 ne at
 Re ed
dis play
a ver
 photograp her
 analys es
 M ember
ro ve
ri el
 kill ings
 med ic
 und ers
 colon ial
bl ack
be an
 Sp encer
 P as
 chart s
 reason ing
 class ical
 L iving
ill ery
 attack er
 ed ges
 Palest ine
 mob il
og ether
 W R
 f li
 10 1
 int end
um in
 veget ables
f our
 S ay
pro of
 emb assy
 purch asing
 lect ure
 mat ched
ke ys
ig a
IT Y
ra pe
 c m
 swit ched
ID S
 loc als
 K och
C ity
lement ary
 r ated
 oblig ation
 â
 p ants
 gar bage
 stat ue
 god s
 System s
 straight forward
 elabor ate
 bus es
 Un it
g el
M ike
 fl owers
) (
 territ ories
 portfol io
 197 6
 D iam
 B ased
 Bet ween
ocument ed
A K
d ec
 inf amous
 tra uma
oc ity
ate ur
 Wal ter
 L ess
 unf old
 Michel le
 Blu es
 M i
 int ro
 air line
 or che
Ã£ o
 Al bert
oub ted
 I l
ss on
 M MA
 h alt
 ha unt
 priv ately
  q
 T ory
ignt y
 L oad
az ed
 s isters
rib ers
2 000
 deal ers
 Em ploy
 Hom eland
  ^
Every one
o pp
re ach
T or
ion ed
S uch
 frustr ating
D I
 accommod ate
 pe pper
ph p
 med ication
 ath lete
 D M
 8 1
 for ums
 f ame
 197 5
ä ¸
 n uts
 att ributes
u um
 Den mark
 m ud
un s
L eg
As ked
 V eter
 D od
 S oul
 9 8
 A ld
 Com ics
 A qu
 M ort
 rank ings
Pro f
 clos ure
 L uck
pe lled
 mod es
 lim iting
 Mu hammad
 stri ker
 l oving
n esty
 un st
 sear ches
 imag ined
 Cal gary
 withdraw al
 d ated
9 00
 e ighth
ro lling
 effect iveness
y t
 st ays
u ct
 Ab d
le m
 Sub scribe
 int ake
B it
 m ph
 dio xide
 car riers
 con vey
 G ate
¸ Ð
 qu ery
 W ATCH
 h oney
 enthus iasm
ack er
ic he
 wh ilst
 197 3
 dep ict
oth y
 publ ishers
 Rel ations
 measure ments
 substant ially
 nom inated
id ges
 Move ment
 ch ap
p it
writ ing
es ity
 Harr ison
L D
 histor ian
 Sh adow
 list ing
n ames
 str ings
 G PS
 qual ities
 St ra
 delic ious
resp ons
 P ere
Â ®
 respons ibilities
 lock er
 d angers
 G am
 hung ry
 exam ination
 G ear
I nc
 diagn osis
n ational
 N umber
 ple a
 Pal in
 d ash
co gn
ar ming
 s ink
 Bu zz
 d rought
 P T
Art icle
 ex agger
 w and
 discl ose
ro ots
 A CL
 8 3
connect ed
pport ed
 rev ised
 rel ies
 inev itably
 diff er
 8 4
  vel
 R at
Sem it
 mem orial
Do es
 vol umes
 p ione
 blood y
ab el
 R ico
 ign oring
 loyal ty
 rec ycl
 vari ations
 shut down
 ent ries
 Carl os
 197 2
 symb ols
 am munition
 Bl air
 Soft ware
Look ing
am ation
 h ood
 p orts
 W oman
 your s
 friends hip
OR T
 he d
 p ile
 class room
 al tered
 dem ographic
ins ula
br is
al in
 occur ring
 H em
 d irt
S O
 Up date
 D ennis
 A my
 Vill age
 Br ig
 phot ography
 trib al
 C ann
 algorith ms
 h orses
 former ly
 brief ing
 fundament ally
 redu ces
 fulf ill
ul u
 re ass
ING TON
 Plan ned
 qu ad
 inhab it
z in
 rap ed
 celebr ating
ol an
 hero in
itte es
 ves sel
 Brook s
 desper ately
w ear
u h
L ife
V A
 met res
 gall ery
 Wall ace
 sk ull
 mid st
 L isa
 K el
IN E
 Trans portation
 D R
ential s
z o
 isol ation
 GM T
h ole
art isan
 b ikes
 ret ali
id ation
iz ont
A gain
i ology
 ab ort
be y
 dele ted
 sp ill
 un limited
 197 8
 sac red
 out door
 Sun ni
 new est
 H ockey
 p seud
let ter
A v
 sh y
 belong s
 pres cription
 dis m
 ins ure
 exerc ises
 f iber
 express ing
we alth
 ju ice
Q aeda
 account ability
 Liber als
 sche mes
 mod ules
 Ra iders
 gar age
 govern ance
 t ribute
 inc om
 cons ume
½ Ð
 R ah
Ind eed
al so
roll er
 P ast
 Ed wards
 president s
 lineback er
 in ex
 8 6
 M C
 disp ens
osit ory
 arr anged
 ch ase
 fil med
ir i
aret te
 c od
ell a
ell ar
R ob
 rub ber
 Ð
 G it
oc ide
IT H
 Pok Ã©mon
 Br un
 bed room
 sol ved
rem lin
ov ic
 Se ahawks
 a ide
 n odes
 re ception
 M ueller
 conf using
 play back
 l uc
RE S
 billion aire
 Z ero
 Ter ror
 f lesh
 accident ally
ag ging
oubted ly
g on
 Jenn ifer
 l oses
 rec on
 Ch apter
C opyright
 perman ently
 to ys
App le
 r age
B E
ess ional
S l
 exhib ition
 B us
ab ad
gg le
pp et
 un le
ard ing
 o h
ik ing
 san ct
 Co ach
 mis conduct
 th umb
 spir its
200 8
ll en
 She l
 w ounds
 9 6
el f
 med al
 bo ats
 Sil icon
 L ost
 C ape
 fresh man
 P ick
 vig il
ch air
 sell s
m outh
 pre jud
 Phot ograph
 consider ably
 demonstr ates
 F ame
 8 7
A ng
 D ublin
 Cast le
 last ing
 he ter
 strict ly
 sh ipped
put ed
 man ages
 chem istry
ur able
sc he
 es p
 regul ate
se mble
 fin als
 g rey
 en cl
 milit ant
 label ed
Su per
irt ual
de gree
 fin es
i op
 toler ance
 N PR
 t ier
 skept ical
 except ional
 sp ite
 sc ram
 Malays ia
 pred omin
 Tr uth
ie val
 t el
ung le
 Aut o
 R ou
 stre ams
 Ch ile
 puzz le
work ing
 lin ear
 For um
 reason ably
be red
ai ro
 Z ion
 9 7
 tack les
 cance lled
on ge
 den ying
 S i
 R oth
 G as
 pit cher
 car go
 C el
 Ur ban
p u
 love ly
 process ed
 O k
A ug
h ner
 sc rap
 A gr
 mid night
th irds
 ret rie
 sp ends
ft en
 arch ae
Ph ot
 organiz ers
man uel
 un acceptable
 Y ears
hr an
 tun ed
 St ring
 mon ument
 genuine ly
 teen agers
 Oper ation
olute ly
 sub mar
 Pal ace
 f ancy
 R ush
it ial
S ur
 facilit ate
writ er
p x
 m ature
 C op
os i
 Represent atives
 d ancing
S an
R et
uls ion
 rel ate
 out lined
 Bill y
 P ul
 autom ated
 oblig ations
 sexual ity
 rel ent
pro te
ust ers
 T ill
 ext ends
 div isions
 ad vers
 surve ys
 McC arthy
 f oul
 le ap
 W onder
 tour ism
 i Tunes
le ments
A uthor
om o
 Th ailand
 success or
 J uan
M at
E arly
 C art
 n it
 spot light
 Sh ield
 Â 
 Benn ett
 H ig
ow een
 anonym ity
 tw in
 ab oard
 in ability
 N DP
m el
 G ay
mar ks
 Rich mond
 recommend ation
 under neath
 dr illing
Î ±
 Sp urs
or ters
 subject ed
h ad
bu ilt
 hear ings
 battle field
 Ch o
 p ound
 inc umb
P H
ret ion
 F ile
 gener ic
 G ad
ri pp
 Griff in
 Cz ech
 se ct
 spe eches
t ur
 consist ency
ah n
 Ob viously
 vict ories
 Ch amber
ccess ful
O O
 Bet ter
 p iv
 Bang l
 contract ors
 Chron icle
heim er
qu ire
 elect ro
ect or
 ris en
 tong ue
head ed
 Com merce
 l ined
in ery
 ad verse
 El sa
 par ade
ai res
 sal aries
 Rec ord
 trave lling
 L LC
 Bre itbart
B ER
 ste pping
 name ly
 embr aced
 frank ly
 l ap
 0 2
 Soc cer
 Elect ric
m ile
f ar
 Be yond
 render ing
 G B
 So on
 In valid
ou st
AR D
 confident ial
 Tit le
 K l
 transl ate
 F itz
te am
 m elt
Ã© s
 pl ates
 exhib it
 Q atar
w rite
 T ol
 196 9
n ut
 d ive
 G and
 analy zed
  ì
 tact ical
rele vant
ant i
{ \
 art if
 li ability
 Work ers
 Acc ount
F I
 emp ower
 Pack ers
 Hur ricane
 b inary
 G host
 N A
 stro ke
 Tit an
 Sur vey
gener ation
 function ing
uck er
 N eg
 un ited
 Sh an
 Conf eder
 g ard
 con d
bs ite
 M aj
ul ous
ag ged
 arri ves
ap or
Down load
 d ot
 lic enses
? !
ress ive
igue z
 r ings
 Cub an
 A gre
 don ate
 part isan
G S
 back lash
 vend ors
 M VP
 Bry ant
 doub ts
hold er
ier ra
 steal ing
out e
 sign atures
uster ity
 H alf
min ation
w ick
it ness
 fel ony
F R
 qu o
 grocer y
 cloud s
 ML B
 G reens
ming ham
 9 3
 j ack
 public ations
 casual ties
ling ton
 aut ism
 negoti ating
 coast al
M C
IF A
 9 11
T im
 u l
 Stud y
 object ives
i pt
 ment ions
H ouse
 M all
 bureau crat
u er
 gu ilt
 gl ory
 R AM
 sovere ignty
 defend ants
 electron ics
 H BO
 Ne ed
 H ope
 sh apes
 prem ier
 m ate
 liber tarian
 f est
 im pe
 Sh i
 Ice land
 G P
ick ets
 arrang ements
  ð
z illa
 pl un
 ves sels
 Met hod
 B agh
 hon our
 ac ute
 Reg ional
 fl ows
 discl osed
 enc rypt
 sport ing
 n ort
 lack s
 fort un
k ill
 hun ger
 pre season
 necess ity
 Def ence
ay ed
 AL L
 { \
ocrat s
 Brother s
c ulation
 B obby
EC T
 S id
 out let
 prop ri
 197 7
V R
 cl arity
 he al
 un ch
 legisl ators
 S earch
 catch ing
orient ed
 dign ity
 A ns
 T ib
there um
 Ar n
 utter ly
 S O
 protect ive
 s lic
 pret end
 tw elve
Fr ank
ore st
bor ough
 stimul us
 c ute
az ines
 K ill
 R ic
 character ized
 bl own
 d ense
 market place
 r am
k ens
g reen
 St op
 spons ors
ter ior
 t ube
 theoret ical
 Nob ody
t em
 Att ack
 9 2
 diss ent
 l ighter
IG HT
T ur
ES S
 c ure
 spe lls
F T
Post ed
 Similar ly
ew ay
 flood ing
 adap ted
 w rap
 Event ually
raw l
cl ing
i ary
 G ot
 gen ius
 pre vention
aug hed
 A N
 anti bi
l on
 F err
oun ters
 Phill ips
ak y
 eru pt
 Brown s
 Sn ap
 switch ing
 evolution ary
 fore sts
 m all
 cele b
 But ler
G R
 en abling
ot er
 mus cles
 Al f
 T igers
 glass es
 comple ting
Ä 
 B P
 Mc L
 qu arters
 197 4
um ns
 M IT
 B R
em ail
W ashington
 f art
 Bry an
 M ode
c ost
atic an
 se am
 ret ro
or us
et ta
 Al tern
Ä 
  ),
 ca res
 air pl
 Sh ah
 barrel s
 hum ili
id ated
 w are
ar u
lick r
 p ale
 achie ving
 read ily
 mal ware
 explo itation
 mist aken
 D ow
on el
 Sand y
 table ts
 co at
 affili ate
 l ing
 mur ders
 Cl ay
 over haul
 char ter
 N ag
o in
 ha ul
 To o
 C OM
cl ip
el come
uten ant
 Plan et
ig o
 astron aut
 M ack
) |
urn ing
 equ ation
 B ishop
 list ened
ac i
 juris diction
 rein force
A FP
 de bris
 inf lam
fund ed
 subsc ribers
ons cious
 dr ill
 J av
ro ved
I II
AN T
 Pant hers
 Never theless
 Ob ject
 c ab
' '
 tri be
 P un
r ained
 met a
 st un
 hold ers
ã 
 spons or
 l aughed
µ Ð
 ext ending
 subsc ribing
 spec ify
 In side
a is
cast le
 cool ing
 predec essor
C are
in u
 bip artisan
 ins ights
os aur
 mal icious
ent in
 somet ime
IC K
 ins ult
 fr ames
 I v
 Be ast
vel t
 u seless
 Arab ic
 O wn
 ref usal
 197 1
ott om
ri ages
 be aring
 cous in
 I de
 Im perial
 r ats
 financ ially
ertain ly
 can cel
 synd rome
 roll s
 swe ep
 up side
 S F
 ir r
 end e
 not orious
 night mare
M obile
 p airs
 f ond
 R ud
 fire arm
 Jam ie
 pers ist
 du o
 swe eping
 m igr
 pro port
 Or thodox
 business man
 sur pass
 cred ible
 arbit rary
 a ston
 Aust ria
col or
 W ii
 attack ers
 hard est
 mob ility
 3 50
U P
 14 0
 expect ation
p ress
L aw
 associ ations
 neur ons
 Sp ot
 glob ally
re amed
 or al
 dom inate
 review ing
 Ind ex
U K
effect ive
cont rol
at hetic
ur ring
C re
 re ct
 new er
 hydro gen
 Dou ble
 D awn
 red ist
 viol ating
P ut
 legit im
 New ton
 portray ed
 B ird
ul ator
min ed
 N at
ASH INGTON
 l ately
 TO DAY
as a
 tr icks
 tour ist
 ter rain
im port
 separ ately
 D aw
B i
res pect
agon ist
 b ru
M E
m ain
 deter ior
 v owed
 I BM
 troub led
 re iter
 R O
 revel ation
Ä ±
 R achel
os pel
 C li
 dis ability
 re bell
 Sud an
 a ides
V ID
 S em
m ans
 apolog ize
th ink
 nation ally
 nav igate
 M ul
 re lied
 bi ology
 pos es
 D ad
Ð° Ð
 prov in
 Jul ian
Cl ass
s im
 settle ments
 p ockets
 Mar cus
 Ð ²
 art istic
 Well s
 Qu inn
iz ards
 comm itting
 c ache
ane ous
 g au
 Sw ift
 tourn aments
 Laur a
umbl r
 phys ician
 bl end
 Sel f
 elev ated
 st raw
 B order
 G R
 b atch
 S or
 Contin ued
 prov ing
 short age
p ers
th ree
 decl aring
 pers istent
es pecially
P ublic
G reat
 ident ities
 Gl obe
 C ab
 8 9
 a qu
ian ces
ade qu
ith ub
sy stem
 was h
og g
c m
 ele g
W ind
 inter im
 T alk
 st ark
ay er
 R ace
 C SS
b one
 F ish
 Te hran
 F ast
 a ster
D el
 les bian
 inv isible
 viol ate
sp ace
 Mach ine
 gal axy
 S ug
e er
 B L
H ub
 art work
un ks
 Ass istant
 grad uated
 var ied
 exclud ed
su fficient
AS T
 vill ain
K a
 ali ens
he el
 Bre ak
 over time
 D ue
 che er
 dro wn
 defin itive
 over see
 pron ounced
 inter section
IM E
 Leg end
aus ible
 g i
ool s
 kick ing
 run ner
 N ancy
y ang
 acc using
b ling
 assemb led
 influ ences
 Y u
° Ð
 Cl ose
om i
 T ru
 C ou
 Card inals
 m ush
 Sh in
 Se ven
 N exus
 pre y
 sub way
S and
 ob esity
 ren ov
ro gen
 revel ations
 S A
 J ong
 Tra vel
 P in
" ;
 Lad en
ant ing
ne x
 fort une
U ntil
 lay ing
L i
 bul lets
D ec
ernand ez
not e
 hel met
pe g
 p sy
 W ade
 bes ide
 T her
S R
 Ch ap
 B ed
 se al
 war r
 ag g
 Ne ither
Bu y
ah o
 ris ky
p df
 d read
 vary ing
 me g
 trib es
 impl ies
Americ a
 sh ower
e gr
ine z
at on
 toile t
 rent al
 Aff ordable
 V iol
f ighters
 M itch
build ing
 B iden
l ast
 kilomet ers
ar cer
am y
 re lying
 Tar get
 B annon
 ne ural
 M es
 break through
 Cle an
w al
 favor able
 L uther
ash i
rament o
it utes
 Wh atever
 gr am
 authent ic
alth ough
 tax i
h or
 n urse
 Mem bers
 p etro
 ban ner
 Fl ight
T ra
 Class ic
duct ions
 analy ze
 recip es
 reluct ant
 aim ing
ose velt
 Jo ined
 k icks
 cred ited
 P il
 pat ience
 assass ination
ip ed
 fam ously
s cience
 ur gent
 unc onscious
h um
at ched
 E rd
 ins pire
 O t
 un aware
 back ers
N ational
rib ly
 p up
ur ate
 v ib
 cl ause
er d
 prof itable
 anal og
 L ang
 J obs
RE E
 volunt ary
 fact ories
 subst itute
 ca ut
k p
 meas uring
 mass acre
 Sh aw
 H R
T w
as ma
CL A
 sum mar
B ill
omet own
 W ire
 L ot
 st unt
 pray ers
 express ions
 trick y
 outf it
 C BC
is co
 text ure
br aska
ve t
th ird
 mag azines
 cy cles
 p uck
 pass ive
 disc ourse
 Yan kees
cr im
 V atican
G old
 soc ially
 p ause
 al beit
 b out
 Garc ia
D irect
 und oubtedly
 f isher
 st arring
 K remlin
 Hispan ic
 E ither
 sm ugg
so ever
 sp at
M ac
ang o
B ased
 att ribute
 Pri or
D et
rit ical
ra h
 Se lect
b led
 mos que
at ers
 Four th
 crew s
 ã
 rece ivers
 has h
 st icks
 he ated
 provin ces
uc le
e very
 wor ries
 m ant
 Agr icult
 man eu
in um
 contract or
 intention ally
 defend ant
 load ing
ob i
 memor able
 Pet e
 Polit ics
 Hol ocaust
ur as
 f oster
 preced ent
C P
 broad ly
 g lu
 f itting
 our s
 satisf action
T ex
 dynam ics
 blog s
 Pro test
= â
 fac ial
J apan
 9 1
 ne o
 buff er
 Nob el
 l iv
 sum mon
L ong
 De al
NE W
 val ued
 Agre ement
 supp lied
 multi player
 Al t
 9 4
 K or
 Ph D
 initi ated
Bu ild
econom ic
 Min or
p ound
 str anger
H igh
 attract ion
 He y
 G rey
op es
 s ni
 Al ong
 Hall oween
 N ep
atern al
P ort
 H ait
 d ow
e fficient
 disappoint ment
et e
 team mate
 Sam uel
 Ð ½
 Al ice
lic ation
 stick ing
pro v
g ement
he nd
 Tra il
 P oly
REL ATED
 prov es
 ®
he astern
os hi
 sear ched
 Enter prise
 per ce
 Work ing
 Dr ag
 M I
 mart ial
 sw ept
 inc omes
 fol k
 Bir mingham
 C ant
A H
 p ars
or able
 Ar c
cer pt
 M B
 epid emic
 Nash ville
 A x
 un lock
K K
 b ind
 Girl s
With out
 dim ensions
M er
 M ans
 mis under
ful ness
 Chief s
 sk etch
m us
 broad c
 Brew ing
te lling
ain ted
S ports
 r ou
 U nc
 grand father
 Israel is
 interpret ed
all ow
 theat ers
 param eter
 H orn
 med i
 fict ional
 achieve ments
 Col lect
 mod ify
 sk i
 m aj
 C hen
 event ual
 domin ance
k le
 flaw s
et a
 young est
 contribut or
 worry ing
 Comput er
us hing
 tr ump
 int act
 w ard
 S pect
op ular
 ar ise
 subm ission
 g ru
 arch ive
 D ays
est a
em ale
 def ines
 mac ro
 pred iction
 st er
 A bs
ee red
 tact ic
 sur render
 obst acles
O pen
umb ai
z at
 L em
F ox
 philosoph ical
th s
t ake
 K ath
 P ath
 Base ball
M arch
 F an
 p p
 bicy cle
 F L
 Al most
st rators
u ity
at oes
 over r
 pr isons
am bers
it ous
 ban ning
Un like
 fin ale
S H
 reven ge
 tw itter
ange red
 nav al
u v
un ique
L ater
 what soever
 sk ip
 Pr im
 S old
 G A
int age
 national ist
 div ine
 S ach
f ull
 correl ation
 bas eline
  ic
 du pl
 : )
 N HS
 neighbour hood
 network ing
\ \
 she ets
 po le
 hand y
 K ate
 the or
 neutral ity
 g aps
g ue
 Diam ond
 ignor ance
 c yn
 c um
 organ ised
J on
 touch ing
 concent rated
offic ial
 regul ated
 consult ing
amp ed
 assault ed
 Portug al
p rom
 opp ression
in formation
 le thal
ud a
 R aw
cul us
ac hers
 ev olve
 euro s
 An imal
 In v
 E nf
S I
 In iti
 hor izont
 sa ves
 M atter
do ing
 inter medi
 ris es
ast rous
 design ing
cul es
 Pict ures
om atic
 C ox
ut ing
s ay
 n asty
 Hol mes
 import s
p os
 dr ain
Cal if
 invent ory
the m
ost al
E vent
R em
  Ù
 J oint
 quant ity
 K az
 L G
and o
 over ly
r ates
in fo
 crow ded
 Car ib
lic t
 to oth
In tern
 administ rators
G en
 US D
ere k
 script s
 G ive
 mer it
M D
 un in
irl ines
 inv itation
us cript
ment ation
 var iant
 br ick
 Ro osevelt
 desc end
 off enders
 h ated
ne apolis
 don or
 Fire fox
 se aled
ch ief
 commit ments
 Hug hes
 Be er
ir med
Over all
 R PG
 PD F
 196 5
 rem embers
 fix es
 w rist
 Angel a
 b ay
col m
 j am
 cost ume
head s
 Ep isode
are z
F ire
 196 4
 N athan
Â ©
sc ript
 Al b
 gr at
 Rodr iguez
 Pal mer
 Fin land
li ers
 star ters
 Sur v
 free ze
OM E
 M E
 c ord
 prec ision
ide os
 reject ion
gg ing
 nav igation
 cur rencies
 flaw ed
b ot
N a
anc ies
 sy nc
 belong ing
 K i
 comm em
at iv
 t ire
m os
 Occup y
 cl ash
 D ise
 embarrass ing
 pitch ing
ov ich
our ge
 rob bery
 hol idays
 pro xy
 Broad way
 ab uses
le an
 question able
sp oken
S am
 cur ric
 F oster
 app et
 K os
se en
bel iev
 present ing
 ble w
 n erve
ment ioned
 un cle
 Queens land
 upgr ades
 to mat
m und
 constrain ts
atter ing
 S ullivan
 Indian apolis
ic er
' :
 Ch ase
ri ved
 dispro portion
 infect ions
 stead ily
 Boe ing
 remind s
 Dun can
 a pt
 unco vered
 pharm aceutical
le tt
 bas ement
 tradem ark
 m ast
 Rod gers
 cont ing
 m im
 ball ots
in is
Sm ith
 E RA
p ol
f an
se arch
 ad oles
 Mont ana
 ¢
W ASHINGTON
 opt ed
as ive
for mer
 dist ribute
 beh ave
 out look
 n est
Ã º
 manufact ured
rit ies
 boot s
 grand mother
 st iff
 dig it
 R acing
Ke ep
 Moh ammed
 an throp
 comple ment
 pack s
 s ab
y p
 back wards
 at e
 tu ition
 a usterity
 su ited
esc ope
 evangel ical
or iginal
P erson
 contain ers
 make up
 nons ense
 download ed
 prison er
 off ence
G N
 C abinet
 K ash
in ho
 extrem ist
st ick
 thro at
 inj ust
 int imate
 shar ply
 prote ins
 cred entials
 correspond ent
 J ed
 Ñ
S ept
] )
S um
 hot els
 secret ly
 col umns
 track ed
h im
ab a
 Invest ig
ic ides
 land l
 satell ites
ok o
 Ed ge
 Ass ange
 hack ed
id i
 budget s
roph ic
k now
 qual ifying
 Bagh dad
 option al
 se greg
 l as
 Ath let
 to kens
 comp ounds
OR K
 ch ron
 res id
sh ow
 r ivers
 pun ished
 who ever
 â
 emot ionally
pt ic
 surv iving
 inject ion
 sol ving
 A ven
y d
 c ups
Hill ary
 ham mer
 Niger ia
am as
 aggress ively
min ster
S er
ov o
 c attle
 Chance llor
Aust ral
 hor izon
 manip ulation
 laun ches
 lif ting
 met ric
 Fin n
 D I
 inc arcer
c all
 v icious
Sc ott
 Ch ip
 g re
 S ierra
ibl ical
 bo oth
 subur ban
 de lete
  Å
et ition
s ocial
ond e
 Stud ents
 B erg
 Ale ppo
se in
J une
 L l
 Jes se
ar in
 P H
 Pet erson
 hor rific
 Brother hood
 nice ly
us hed
 extrem ists
 conclud es
ind ex
 brew ery
pr ises
E mail
 C ell
 mess aging
er als
 h ilar
 Sac ramento
 amb ul
g om
 public ity
 Citiz ens
 Al pha
r h
 unw illing
 F IFA
 jo ins
C ount
 President ial
N one
 f ert
 br ush
 M icro
 Cat al
 P ink
E xt
 over th
Ðµ Ð
 Qu ick
 vac uum
 prev ents
 Z immer
m ission
 Bangl adesh
zb ollah
 prem ise
 H E
 r ides
 dism ant
 H erald
y our
en es
 D A
 advis ers
h ur
 haz ard
 k g
 just ification
 A G
 trad es
 under go
 B att
l iter
 Leg al
' )
 anch or
 dest ructive
Up dated
 S ave
l ocal
c d
 R ing
 U l
 neighb oring
 Cl in
 C av
 Her itage
 A round
 ent ers
 pict ured
 o un
 h ug
leg al
 virt ue
 trans fers
 ref und
 troub ling
 Col in
 fe as
ro v
the n
 cor ps
 acc idents
 P L
 Over all
 sovere ign
 pur ple
 annoy ing
 record ings
 T u
 troub les
ain able
n ar
 non etheless
 plug in
F ull
 19 45
In vest
 le ase
 by pass
 Jess ica
 0 3
 dis astrous
 am ateur
h n
sp ons
as ure
ag ain
 commission ed
 L uis
ab i
 MS NBC
 o x
 dim ension
 comm ittees
 g reed
 compan ion
 M ong
 H TC
w ould
s qu
 Cost a
 l iver
y ers
 te aches
 h ind
Be ing
 den ies
 All ah
 Re ally
e ig
 C riminal
ie ve
s ers
 D ri
 since re
 j acket
pe ction
um atic
 St u
 D rew
 flo at
 Z one
 Pict ure
 Whe el
ens on
spe c
Su pp
ur ious
 F ac
Ob viously
app er
N AS
 med itation
 
 Pot ter
 cens orship
 p el
 R ivers
U se
 M ine
 Bre nd
eal ous
 legal ization
 Ant ar
 o k
if iable
 op io
 Ah med
 sc ra
 deli vers
ell ing
 in adequ
s an
 impl icit
 Act iv
atern ity
 In cre
 FO X
 random ly
 f ont
 G round
[ /
 boss es
 intern ationally
 Challen ge
 expl ored
 foreign ers
U lt
 unemploy ed
 h ike
J im
 grad uates
 hand gun
 bl unt
 calcul ate
 E arlier
 integr ate
 K o
V e
 b ats
 Â °
 cat ches
 cl ashes
 Ne braska
 A irlines
if ully
 Ar med
yl an
 ir relevant
 l azy
 b ans
 disp utes
 re nd
 d war
g reat
 O P
augh s
Te am
ific ant
 L ives
 G ore
v ial
en z
 Te legraph
 Ch and
 accord ance
 S L
iction ary
H el
 ret ained
 def enses
ain er
 cig arettes
 adj acent
n ia
ass es
ok u
av ailable
 e rect
T able
k t
b oth
pri v
 Clar ke
 land mark
¢ â
n um
 encour ages
 L ic
 nin th
M uch
 O z
 16 0
 S eb
 hyp oc
 Ev il
l ength
 Current ly
 prop ose
 int ens
 â 
 terr ifying
 stri pped
 Comm ander
os ity
 Z ach
min ent
 int ends
 light ning
 stud ios
 P ubl
 mole cules
 real ised
ophob ia
 calcul ations
 Naz is
 san ction
 Cub s
 campaign ing
 far mer
 en acted
s um
n b
 over head
 toug her
 cal ories
Sim ilar
 recru ited
 kne es
¿ ½
cons cious
 clar ify
L ear
 investig ative
 conf erences
M ax
 econom ically
EL L
worth y
 subst ances
 E rn
ur ry
 att ach
] ;
Hist ory
undred s
 symb olic
B ron
 r ugby
 prof iles
 crit ique
if iers
 mor ality
 add ict
 Week ly
T T
 gu ided
 co pper
 cent res
 F am
 homosexual ity
 D ynam
 flow ing
 she ep
 P owell
 social ism
 pres erved
 coll ision
 st ones
 load s
 dr agon
 Boe hner
 d un
 aff irm
 sl ice
 pl acement
 assess ed
 sc are
m ill
 L O
 norm s
 prosper ity
 proceed s
 furn iture
fr ame
 cou pled
 n aming
 Tib et
 special ized
imp se
 not ified
t n
ograp her
 Sen ators
he ll
anche z
gh ai
 hed ge
 gl impse
 I L
 a ug
 relig ions
 imag ery
 pleas ant
 V oice
ok ia
al ph
 subur bs
 sequ ences
 fif ty
 simpl er
 deliber ate
E U
 crit ically
> <
 fav ored
 expl oded
 he y
 De b
B ro
 ch airs
 Im agine
 porn ography
 Jo el
 Carib bean
 ch unk
izz ard
 W ing
 T ogether
cl ick
 0 7
J uly
 or b
cc i
 drag ged
 cryptocur rency
 Hung ary
l ation
 mind set
 ind ie
 ref uses
 offer ings
 tri o
 enc ounters
 l ending
 h ometown
ia z
R eal
ost ic
 Any one
 C ulture
 12 5
 revers ed
ident ified
 pack aging
 pot ent
 emphas ized
 sc al
ograph ical
 We ather
 Le v
 real ise
H ead
 fl ower
AM E
 gl ance
 Z en
 gest ure
 sc roll
 Pro s
 disc retion
b ank
 M ana
ues e
V M
Ã  
 st ole
F eb
 C and
e o
 A na
 b er
 M umbai
 M aur
 bre ed
 travel s
il ia
us ions
imens ional
 tal ents
v ance
 thr illed
 Erd ogan
Â 
 turn out
 C urt
k an
 E ight
 v ag
 contin ually
 B row
 cop e
on est
A pril
 Min neapolis
 cance led
 indict ment
 any time
 strength s
 min ers
V er
d est
 a irst
 N ar
 D im
ed In
P ac
 pro long
 Imm igration
 en velop
OS E
form ing
et on
 Che m
by e
ke ll
Un ited
 m old
 commun ist
 father s
u ki
 share holders
 Mil an
 Ed die
 contrad ict
 M ull
 An aly
Je ff
 W es
 D w
ous ands
. ).
t age
E nd
we b
mer cial
l aim
 account ed
 rest rain
 flee ing
 des ires
 GO OD
 Mus k
ri ans
asc us
 res il
 decent ral
 Europe ans
 Priv acy
 applic able
 tow ers
W a
 g ambling
iber al
 art ic
F eed
B rien
 vo iced
 has ht
 K ay
 reb ounds
 D ian
and ing
 lack ed
 pract icing
 d airy
 ind ivid
 T ouch
D ou
c urrent
 B ald
in v
ri kes
an ies
 order ing
 Str ong
 fact ions
 L an
 import ed
 overwhelming ly
 thread s
 habit at
 dict ators
 Ã  
 Look ing
am pton
 Ch ad
 head er
 critic ised
 man uscript
ro d
 el ites
 scholars hip
 ins pection
 d ent
G L
os ph
ol ics
cept ions
 Th ai
 dep icted
 sw ap
Ã© e
 not ification
 Alex and
 B aby
1 30
 E thereum
 C it
ny der
 su cc
 fru its
 Mart inez
 9 00
char ged
 Prin cess
sh aped
 prec ip
 Gib son
 predict able
h aw
 measure ment
he a
 J ared
 collect ions
 E P
 M aking
b illion
 sur plus
em et
 b arr
 ra ids
C ap
 femin ism
 was ted
 activ ated
oot s
O kay
 org ans
 Lat ino
 dist ress
 fe ver
 su ite
M icrosoft
 rein for
ab lo
K ing
 column ist
 ir rit
j ah
 whe at
 abort ions
 poet ry
tr ue
 HT TP
O H
 Wood s
oll o
 issu ing
 depos its
 tr im
i ological
 Cast ro
 C our
L ab
um my
gh azi
 forth coming
 be ans
 L akers
is i
 un law
 comp act
 activ ation
 appreci ated
 satisf y
um ar
 r uin
 Un ity
 pursu ed
ON E
 le ver
h h
 rall ies
t c
s un
 const itute
 we aker
 progress ion
 off s
 Y ellow
 Pr int
on ut
 supre me
F il
 lit igation
 Adv anced
est on
 cons cience
M att
 fin ances
 ch ick
 R af
 Light ning
ff e
 l ips
id ity
T I
 Dem ocracy
 comp iler
 Ð
 j ets
 amb ig
 Tex ans
t z
 d awn
 crack down
 Gand hi
 fre el
m ember
M ad
â :
 schol ar
sec ution
 m g
 post ers
 P red
 Jeff rey
 t ender
 Mer cedes
 efficient ly
 deb ug
at able
 be ast
Rober t
otten ham
 Norm an
 M ade
 H ob
gom ery
J oe
Str ing
 obsc ure
 kilomet res
ce ans
ol k
ask et
per m
ac cess
Sh ort
 guarant ees
s omething
 car ing
er f
 hel m
 U ser
 Ad ded
 0 9
p resident
 Pro per
 Rav ens
 Po ints
sh it
 start ups
N O
 activ ism
 neg lig
 Toy ota
A E
H ello
200 7
 need ing
 confir ms
ys on
 des cent
 parad ig
 M ath
play ing
O p
 liber ties
 Vis it
it ary
 N ine
 acc ent
cl ub
 j unk
op ed
 s idel
 b ored
 sc attered
 according ly
 threat ens
 A ub
 rock ets
reg ular
 S au
 ro oted
 sec uring
 instruct ed
 wood s
 pass port
 T ask
 port rait
 dis hes
 Hud son
 le af
 NY C
 got ta
 res et
 P eng
 Creat ive
P oint
 ir ony
 unh appy
 transport ed
 assert ion
b augh
 Stud ent
 Marg aret
 fix ing
 D in
 ch im
su ally
 wat ches
 N ad
 un int
 man ually
 hy pe
 cry stal
 custom s
 int ensive
 wh oles
 Stat istics
 U t
 B omb
 profess ors
ateg ory
 pat ents
raw ling
b as
 Hel p
 assign ment
 Ad vis
 sp here
 und ocumented
h ang
 You th
 ge omet
 Mos ul
 remain der
 b ron
 c ement
 S ri
 196 6
 He zbollah
 Spr ings
 Boy s
 I R
own er
 sh outing
 he ating
 cur b
ft y
r ams
 Inter ior
 celeb rities
 C ancer
 tra ject
 survey ed
 C M
 C P
 project ions
 D ru
 astron om
 post season
s ight
 sh ark
G C
 en vision
 T ree
 react or
 for k
 c abin
 c it
ir ation
 W alt
 B ak
 S ens
 H im
ris k
qu is
 marg ins
 sl ated
 Obs erv
 bull ying
AC E
 C ool
 mix ing
 system atic
 Sum mit
 eas iest
 Squ ad
 t ennis
 background s
 vacc ines
 sound track
 Lar ge
 favor ites
AS S
 ment ality
 gr im
 commod ity
g irl
 m ol
 c her
o vers
oh n
 conce aled
 academ ics
 B anks
 apart ments
 L ion
 d ug
 su e
Â »
 aer ial
 sm iling
 be ats
 Pro cess
k u
 Id ent
 advent ures
 BM W
 dig est
 W ere
 batt ling
 Com cast
 B apt
 dress ing
 tou ches
 pr one
 forg ot
 Ch an
_ {
F ive
 m apping
 app l
 come back
 grass roots
 Pal m
 bl ade
Ind ia
 Mon ster
 0 8
pl ess
C all
 dis puted
 S K
 Mov ie
il tr
12 5
 min es
 s od
 cons ol
 Com ic
 0 4
ys ical
j pg
Ph il
emet ery
T Y
 met eor
B as
 ad min
 G aming
ent ry
 c aucus
 promot ional
 he els
 ( Â£
 Form ula
.' "
 park ed
 S ett
 fl ies
os ures
 H onda
rec y
 c ables
 M is
 sh outed
 appreci ation
 Mal colm
 continu ously
he y
 l ied
 Y ale
ph is
 nut rition
 mo ist
 flags hip
 sl aughter
 ble eding
 indic ator
 gas oline
 ( -
ens ed
 at op
 Oper ations
Can ada
A nn
 displ aced
 hand les
run ner
 o ven
 remote ly
 dep uties
 Tele vision
ul ates
ix els
 Â »
 rhyth m
 ca f
 pl ed
pro cess
 Car r
 cont empt
oul os
 Ken ya
 P etro
 trop ical
co ll
 col ony
 sh oe
 sc i
 F o
 Ab raham
 sc ales
 A K
 F alls
 multi pl
es ville
at ility
 L ower
  ã
 str angers
W W
S il
 se gments
m or
F ile
 A nc
 mount ing
 w ield
 staff ers
uck ed
 gen ocide
 Dam ascus
on o
 an om
 P ract
ã 
m ount
 Belg ian
 polic ing
 W a
oc y
 acc laim
z el
 imm unity
 fl ames
m ax
 ill usion
 Fin als
 Ben ghazi
 d ough
 ver bal
 E S
 Col lection
 Vin cent
g as
 l inem
 Br ain
 stat ute
 clear ing
w age
 dis reg
 sh ook
 Fred er
AS E
 unp redict
 Cry stal
l isted
 pull s
A ir
 dig ging
 W ang
 prompt ing
im g
 Some one
 ic ons
 port ions
 inherent ly
 compet itor
 character istic
 g orge
 compar isons
 br idges
 Del ta
 connect ivity
 196 3
or ically
 bench mark
atch ing
 affili ated
r ising
 Sim p
 Br ight
ad itional
 ambit ions
Qu est
ni peg
mid t
 to pped
V is
ie ce
ce pti
 sh aking
 W r
 en v
 cro re
clip se
N on
 certain ty
 cent ered
 small est
 P ic
ig ion
r ar
 O m
 behavior al
v at
Cons ider
 Ne uro
 Sch olar
 De cl
 New castle
 Major ity
 min us
 d are
 Tom my
 synt ax
cific ally
 dispos al
 We ap
ach t
v or
 Hop efully
 applic ants
 Initi ative
 O pt
ib les
 fortun ate
 pit ched
 w ished
yn asty
 music ian
E s
S N
 up hold
 Wh ats
 Up on
Ste ve
 W ITH
 pro c
 med ieval
 wild ly
 C T
Christ ian
 impact ed
 c rap
OU R
 re productive
 st agger
T er
 G raph
Con f
 B ody
 B ren
 TH IS
 storm s
 dis ruption
 C ash
 pit ches
C AR
 st ap
 K ane
 Sat an
 we ighed
 contribut ors
UL L
or um
r ise
 Cont ent
 sle e
 C opyright
W omen
 ur anium
I X
ab lish
 Portug uese
 0 5
W i
 W E
 anx ious
 cook ed
 App arently
we gian
 be es
C T
OR D
AC T
 pl ag
ot ive
 aest hetic
 Wal mart
sh aring
ess age
Ed itor
 aver aging
 R ank
 st ub
 eat en
 | |
 adjust ments
 H ERE
Ã¡ n
 prior it
 st akes
le en
ong yang
 g ly
 as leep
orth y
 theat re
 my st
ean or
 W ings
 Em peror
 individ ually
 Arch itect
 Ð
 em pir
 ve ctor
 im minent
 faith ful
 pat ches
ur ally
 sh adows
 r ipped
tit le
 cinem a
 R ule
 rep ository
S w
 p und
 advis ory
 attend ees
 e go
 st aring
 St alin
 Indust ry
it ated
 Other wise
 H un
3 50
 found ations
 D anish
 fe ather
 demon strators
 cru ise
 r anges
y nc
 Legisl ature
 des erved
ogen ic
P age
 S ale
et ooth
d ollar
 sp ont
akes pe
com pass
 recover ing
â ).
uc ed
P ower
ur g
orce ment
ow itz
ash a
 Car roll
 sufficient ly
 B ills
k ov
 que ue
 distinct ive
 â 
 Crime a
Every thing
 ju ven
ope z
 legitim acy
 M ut
th reat
or o
 cl ue
 Com b
 dep osit
 M ob
 K urt
 bon uses
 jail ed
 cert ified
 cand y
ch ron
 j azz
P eter
Ã¼ r
re nd
 rail way
le ague
 que en
 hier archy
 Reds kins
ar se
 und erest
 histor ians
Ã­ a
 mas cul
 clim bed
u it
 Fran co
ro x
 incumb ent
 al erts
 phys ic
chn ology
 Colomb ia
 n ail
 n ucle
,' '
 pl ausible
 adjust ment
s ite
 un believ
ult z
run ning
 ro d
 S QL
 Le ave
 supre mac
 cr ashes
â ?
 car b
 Ult imate
d ou
 c age
 ab usive
om ore
 metab ol
 supp ress
 phys icians
 par as
 cook ies
bro ok
pect ives
 Cons umer
 explan ations
im ity
he art
 a fore
 Gr an
 Gener ation
 min imize
f ood
w ait
Not es
 cont ender
 ut ilities
 she lf
at is
lic ted
 amb ition
 imprison ment
ounc es
 sc am
 s lu
 blow ing
ould er
ic ating
% ),
 found ers
 H az
ad ata
 neg lect
 K enn
 D ame
 rescu ed
 X i
 off enses
 position ed
 Id aho
t ax
 light ly
 W or
c amp
 Shan ghai
 zomb ie
 vel ocity
 Met al
 cig arette
 c ad
 direct ing
 Co in
 elect orate
 deleg ation
 l ung
S ure
 Simp son
 flav ors
 Common wealth
 de ar
 ( +
 M ol
 gi ants
Ù 
 A er
Any one
 Ch ampion
mat ory
 West minster
 motorcy cle
 boy cott
Ob ject
 Per formance
 K an
 answ ering
 educ ate
 by tes
 box ing
l av
 huge ly
 sie ge
prising ly
D aniel
g ow
 The ory
 persu ade
 promot ions
n els
 explo ited
 S witch
 mor ph
 al igned
 Col ts
 Lim ited
als h
 p ork
 half way
 Leon ard
 S anchez
 row s
ing rich
 run ners
uter te
q a
 C ounter
 F ix
10 1
 M asters
 lad der
 ab rupt
 prop osition
 Arm strong
Ù 
 collect ively
 sim ulation
 ch asing
 off line
 E nc
 N ut
 O ri
 f reed
 luc rative
 app ar
 gener ates
um per
ason able
 car n
 recogn ised
 show case
 B ent
 dies el
 integr al
 consist ing
 H ear
 access ed
AR K
 plant ed
 element ary
 autonom y
 Int egr
 O d
 Es pecially
 sli pped
 fif teen
 P orter
 associ ates
 A F
 V M
 absor b
 opt imal
 W ant
 U CLA
 O culus
akespe are
 curric ulum
 Social ist
 dow nt
 milit ia
 Steel ers
 cere mon
 t ide
 jer sey
 An alysis
or p
 p iano
b ach
 K il
 low ered
cin ated
am iliar
 mar riages
 Confeder ate
 S ie
 man a
F a
 sp ike
 met er
 Step han
ad ays
 adv ancing
 op ener
 negoti ated
 ancest ors
 G N
b us
asc ript
 po em
Ass ad
 Priv ate
ann ers
ale z
 w itch
 Em ir
ra k
s om
 appeal ed
 S B
al one
 L oc
 co ff
 author itarian
olit ics
 recruit ment
 match up
 we ed
Q U
 quant ities
 bl oc
 K aren
 B elt
 bl at
 Str ateg
 Q ur
Ù 
 slow ed
 pist ol
 port able
 satisf ying
 manip ulate
 imp osing
 I Q
 inhabit ants
R yan
 N ord
 quarterback s
er ness
de al
 Â ­
it ate
ich t
 X L
 unp opular
 protect s
ob a
 per ipher
 illustr ate
 t ales
 Tra vis
itt en
occ up
Tex as
I ES
 G or
 loc ate
am on
 M oss
Sp ace
 class ification
 consist ed
 p iss
 emb ark
op oulos
 hon ored
 H ousing
 ar rog
 pay roll
av i
 u b
 hom icide
 fact ion
 treat s
um ed
vent ions
 che ss
 delight ed
 Mon th
 J ama
il itation
da fi
 bre wer
 o we
Not hing
 P ub
ch t
 Enf orcement
Te xt
 blog ger
 trave lled
 crus hed
 Great er
def ense
 view er
 up s
 p ond
 consum ing
He alth
 K end
 protest ing
il ight
 diam eter
 R A
} ,
OC K
 M ills
ator ial
 â 
 happ ily
 log s
 F la
att ack
 administ rator
 B O
ef e
 S outheast
 K on
 D olphins
 V ent
 inv ention
 academ y
 Orig inal
 met rics
 S nyder
 dec isive
 t ended
 Amb assador
 Pr ison
c ro
 at omic
 gl ac
 art illery
 y oga
 prol ifer
 over view
RE D
ard i
 N GO
ke eping
ant om
W in
 R ut
 Gl as
 g ates
ll ah
ball s
f lo
 s i
 no ble
I mp
it an
ibl ings
ach i
 similar ities
ret ty
 clin ics
 recogn ise
 Cath olics
 Dar win
 detect ive
 s oup
 com bo
U G
 dri ed
 Case y
 D erek
And rew
1 000
 spe ar
 instrument al
 Del aware
 Min i
 qu ot
ud s
 pat ron
N ob
 sl ammed
cl osed
 liv est
ap y
 dat as
 a u
 constitu ents
 H ence
el ong
 jew el
 al arming
 In fin
M ap
 S pl
s ix
 â [
 Ter min
 F ace
 rest oration
ver ted
 Richard son
 yield s
 upgr aded
 prob ation
clud e
 D j
ourn ament
 Î ¼
 ref r
 ven ues
 d ude
 app le
 lad ies
 H S
 c otton
 app la
 condem n
 O ften
 Cre ate
 prohib ition
m ph
 Louis ville
 mark ing
 sp ying
 seek ers
 L ate
Î ½
ra u
W ould
S cient
 show c
 enthusi astic
 incons istent
 cat alog
M or
 rif les
 Nich olas
 G az
 We bsite
b ane
 fart her
 breat he
Bl ue
a que
C ome
 196 2
 Hus sein
 sl ides
 Wel sh
 r ider
 frag ile
 exp ans
 investig ator
 Gene va
ck er
 Dise ase
 K ap
 bi ased
ns ic
 r ip
 thr ust
 No ah
id y
 gen ome
 Hop kins
 S ter
 lic ence
dep th
 hum ble
V a
 pr iced
 C rew
l iv
 h ref
 N okia
 cor rection
E r
 Re yn
 remark ably
B B
 Par ks
 mis er
" ).
 sing ular
 Abd ul
p res
ep r
 Mont gomery
ar ians
 Represent ative
 Matthew s
 vari ants
 ex cerpt
 advis or
i ated
 post p
lev ard
met ic
 recip ients
 synt hetic
 shel ves
 dep ressed
 gra vit
 Lear n
 un related
H C
 North west
 Load ing
 t ires
 end angered
 bail out
 H A
r ating
 catast rophic
 tro phy
 cl ips
 Huff ington
T est
 W rest
E i
 tight ly
 jud ged
 Ell is
 Sc reen
m ation
 nic he
 C airo
Ch ild
T otal
om on
 T at
ik o
he ster
 ve t
 o ath
 K id
 ev olving
ourn als
 Lea fs
 g ren
 A br
 util ize
 Eag le
 alle ges
 col ored
it ially
 air ports
 gang s
 B eg
 up ward
im ents
ans om
 nurs es
 p oured
am inated
 pract iced
 P ierre
amp ire
 bre wing
names e
 for ty
w ent
est e
 sec urities
 mon itors
 cooper ate
un al
M ENT
Re view
and als
 r iots
 interven e
 T on
iz ers
 V ideos
 Veter ans
ik er
 H appy
is le
 coinc idence
 An onymous
 sl im
 pros pective
 camp uses
 interf ere
 down s
 book ed
 extensive ly
 encrypt ed
 reli ability
 chap ters
 St ories
 M ons
 an kle
 K ids
 hor r
 D oc
 optim ism
 CD C
 echo ed
f inal
 monit ored
 Sur face
 g em
p ose
 V a
 predomin antly
 flo ors
 US C
que z
 Mun ich
iat ric
 Thanks giving
 war ns
 separ at
 m igrant
 l ion
 ang les
H ome
 symp athy
e ous
h it
 ã
P ass
 task ed
 IS BN
 inc ap
 V ir
Î ¿
il ers
Cont act
gg er
 int oler
 insect s
 defic its
 genet ically
 A FL
 well s
 U P
 we ars
 V illa
 T ab
 bound ary
 fore most
oy le
 Arn old
ID E
 A pr
b ucks
uff le
 w ives
 Pr ide
 ste ering
 enfor ced
acc urate
 ACL U
ine a
 pract ition
 ne arest
child ren
 Tun is
 w ai
 Som alia
 whistle bl
 fil ters
 D rop
 J ays
 Ag ent
 E din
â 
 nav ig
 coord ination
 He brew
prote ct
 B eth
 extin ction
 inher ited
 cl iff
as se
De velop
d imensional
 ad ul
he arted
os c
 As k
 bre eding
 P ew
 H ass
 positive ly
 K ush
Spe cial
 Budd hist
 10 5
 Kurd s
D a
 inclus ive
 R ot
p al
 for wards
R P
 Act ually
ect ed
 R B
 Gr ace
L L
 s acks
 sh ine
 cul p
 bureau cr
ell ed
e ur
 n ostal
 Tri ple
 For bes
 scar ce
 ver b
 e ld
 B rett
itz er
 reward ed
 pri ests
 Reg ion
 assist ed
 d oses
 emer gence
 descript ions
 hand ing
 atmosp heric
ane y
 part icle
L ar
 Get ting
 t ense
 che f
ch at
 School s
acer b
 relax ed
sex ual
 afore mentioned
 input s
 Mem phis
 Win nipeg
y outube
Aug ust
 sens ible
 hy d
 g rief
 bo o
 T X
I ts
a uth
 kind a
 w oke
 Mon te
 W AR
 in sufficient
 bo asts
 Hend erson
 A CC
 dist urb
 E ye
 caut ious
 K enny
 therm al
 impro per
 commer ce
ul k
ter ing
 z oom
am ount
 candid acy
 deb ts
 respect s
 illustr ated
 Cl int
Ge orge
 uncom mon
 dys function
 st airs
 personal ities
 c oding
 pl um
 real ities
 Vis ual
 R alph
 slow ing
 d ip
 T rip
het ical
 T err
 real izing
 belong ed
 overlook ed
 Ad rian
 12 8
{ "
e ks
 upload ed
ile m
p ically
 exp osing
200 6
 cycl ists
 nurs ing
 F ixed
 Mor r
 red es
 c ensus
display style
 th rive
 P HP
Don nell
 test ify
 intu itive
 perform s
 autom ation
 add itions
Europe an
 po ised
g ay
 unsu pported
 Py ongyang
 tour s
 B ach
 quick er
sh adow
We b
 Cur ry
 Bash ar
 enjoy s
 ordin ance
 circ ulation
 adm ire
 outrage ous
 Bar nes
 St rike
l anguage
 c ripp
 blank et
 D ust
B ox
 S eth
 bas ics
 N uclear
f illed
 tat too
 se ize
 inf iltr
 assert ed
AT H
 orig inated
st rom
 Re lease
 t ags
 subject ive
 Val ue
 Sil va
st ud
 Pre vention
Ã ¸
 196 1
 recip ient
 je opard
 Re act
 u m
g rown
Re illy
 vibr ant
 0 6
 comb inations
 cas ino
 H off
 B ark
 ty r
 no on
k it
 coord inated
 b ent
 wond ers
 gu ides
 Un less
an throp
 gr ades
 Reg ister
 repe ating
 Wild life
 E aster
 re ductions
 awa iting
 C I
 Sh akespeare
gg y
 a in
 imm ers
 Kas ich
 l oot
 monop oly
 wh ales
 liqu or
 in k
 D ale
 particip ant
 H ook
 fl own
 C raw
 eval uated
Wh atever
C lear
ib al
 Word Press
 N y
 Kle in
 s way
is y
 N am
Rich ard
 im aging
 Tit ans
 Nor wegian
16 0
 M ann
 deal er
us k
 Fal cons
m ake
 cl ues
 hilar ious
il ogy
 B in
 mention ing
 J ur
xt on
 trad ers
 reflect ing
ec d
 tast es
 h obby
 Emer gency
.' '
 P aper
 detain ees
 abund ance
 Dod gers
od ied
 sc iences
 M atch
 Com plete
 never theless
 Nov a
 Al z
 an ten
ins ki
 buy er
 Hold er
 soul s
 wh ale
 pick up
 C ort
up iter
 ener g
 Ch a
s ic
Int erest
 J unior
 Rand y
1 11
p ad
 con form
 dev il
 tri vial
 T ories
 N um
 Em ily
os ion
R ad
 E van
 c ared
us p
 Sch ne
 R ules
 inher it
 bot hered
 flu ct
act iv
 form ats
 R ust
 Athe ns
 watch dog
 Budd h
 sl ogan
 G oth
 Isa ac
 Gab riel
 Agricult ure
 Pear l
 Ba iley
S al
 opt ical
 mole cular
 bl u
 lit eral
p ict
 datab ases
 Ret urn
 man ga
 dist ances
r ays
 under grad
 H ost
in ers
az or
 sam pling
 m es
 Val ent
 Sw an
et z
W elcome
f amily
 c ivic
L ocal
 aston ishing
 M ak
 T ottenham
 rece ipt
 Fa ith
 dark er
 obs essed
 end orse
 demonstr ating
 gr ams
cu ff
 u mb
 hur ting
¾ Ñ
 Met ropolitan
 C ob
er ting
 sun light
 inadequ ate
F o
 exha usted
st airs
 writ ings
S ources
ew ater
 Th rones
 emp athy
ut ton
 Pere z
 Ferr ari
am ples
ag le
Pl us
 cou ch
 Josh ua
 hi pp
 fin est
es ar
 lobby ists
 trans mit
 s iblings
 C amb
 K iev
 overwhel med
 S ite
it ime
 organ isms
ener gy
 diplom ats
in os
 vast ly
 e ternal
 B our
 st agn
 serv ants
 Jen kins
Th rough
 Austral ians
G P
 merch and
t ro
 protocol s
" ),
 M UST
 Dep ression
l al
 Mc N
f un
 sm iled
 p unk
 Stu art
W as
D ate
 ass aults
S un
 premium s
 horizont al
Ð¾ Ñ
d id
Or ig
 de portation
s q
 pus hes
 ex acerb
d ling
L ove
dri ving
S ocial
 M ech
H y
¸ Ñ
 met ro
 en compass
 prox imity
 C F
 understand able
im edia
 P oke
 Le aders
 craft ed
 T win
 Hero es
 pay load
 A IDS
Â Â
 S weet
 A j
 S gt
ig el
 p i
 He avy
er ie
 bank ers
 capt uring
 work out
 b og
r ina
 T iger
amer a
B rown
P ri
F orm
 ver ified
 prim aries
 J ob
 sn ake
h on
 g ases
 19 48
 min im
 inaug uration
 L ore
 w olf
 b ounce
 med ications
µ Ñ
 apolog ized
t alk
Col or
Current ly
 Prop het
 st aged
 F ron
iz oph
ophob ic
 shall ow
 accompany ing
 Pro bably
 ax is
ul se
 sec recy
 activ ate
 D ylan
osa urs
. (
if a
 Cy ber
 surf aces
 eleph ant
 Sach s
 imprison ed
 injust ice
ro e
v id
 Kash mir
L ine
 promot es
 impl ied
i ott
 Not es
D ear
 Viet namese
 M ix
 supp liers
 L av
are a
 rebell ion
o ir
c ock
su per
 sus cepti
 un named
 Ap ollo
izoph ren
 Sc ript
ov an
cer n
v oc
 B arr
 A ur
 j ar
 fire fighters
lu x
 G ingrich
 c el
 W ait
 national ism
 al pha
X T
cl ock
c ur
 lo oph
 state wide
 tra it
 not or
 Sh op
 Ab du
 bol ster
le um
 who lly
ise xual
 be am
 administ ered
 imm un
 rele g
 past or
 gener ator
 tra ils
 incom plete
 H ack
 Re x
add am
 retail er
aw i
 dr astically
M id
 sp am
  **
 compl iment
 Econom ics
al is
 comp ile
 Str ange
 shot gun
 assum es
 ill um
 F uk
V C
 en rolled
 b aking
 F ew
r ors
 T ak
 E A
 sl ots
sh ine
 Sh o
t b
 Cro at
 hur ts
 pop ulated
 f itted
F in
 D at
 h ints
 con dom
 Mar ie
F ar
ens itive
 p aired
 borrow ing
 V el
d ist
 p ets
w s
 new com
 bat ting
7 50
 stab bed
 vit amin
 TH AT
ar ma
 S r
G I
 th y
 athe ist
 ling u
 l enses
 so y
 l amb
 am ended
 Ins ider
 lot tery
 d uck
R ub
 gra pp
 Ind y
Th us
 plaint iffs
 Indust rial
 T PP
 object ions
 o st
 to ggle
 contest ed
 affect ion
nd ra
 back ward
 comed ian
 ext ensions
S QL
 E ug
re lla
 phenomen a
 out line
rop he
 prob able
 In g
author ized
 b ang
 m asters
 c ites
 H od
 pen is
 j aw
AR Y
ut ic
 C ad
 rev is
ie ves
 un equ
L og
 gorge ous
 Cole man
step s
 sub urb
 IM F
 B urns
ish a
 Ash ley
 mot ive
ourge ois
 respond s
 rem inis
g one
ant on
 tort ured
 main land
 inter ventions
 adv ise
 pass words
 emb ry
 helicop ters
 g ently
 c ater
set t
 H alo
 analy tics
 adm itting
sec ret
 self ish
 obs ession
 Ell iott
 mat rix
 an them
 co h
 popul ist
 p ills
 stagger ing
 contro llers
 stand point
on ce
 App eals
s r
 sum s
ere rs
ele br
 She ll
ot ine
 Bur ke
en o
 St rip
 cast le
 Arab s
EN D
 ware house
cu its
 explos ives
 Pat rol
iet al
d et
 J os
ver ing
 hur ricane
 G ang
ar ious
 ro pe
 agg rav
inc eton
 un ified
 par a
 W ag
 GT X
Sh ould
B erry
 concent rate
 S ask
 fig uring
h art
 col ours
d n
 cry st
de ep
 cat aly
 psychiat ric
 log ged
os oph
 Ind igenous
 Th om
 L ed
 ensu res
 Offic ial
 t urt
You ng
 B io
 ar row
 symp athetic
 log ging
 prot agonist
 min ors
 I van
 val ley
 se as
 o wed
 privile ged
AM Y
 * /
S ha
F ixed
h ouses
 V irtual
 Dra ke
 erupt ed
 N aval
yl on
g em
 l od
 cons oles
 V o
U ser
 T i
 ide als
200 5
 wel coming
 Treat y
 an ecd
 prosecut ed
 Br id
sp an
s ervice
 des irable
 sad ly
 surf aced
 emphas ize
 SC P
Sub scribe
 pl ots
 L um
 Em ma
 feed s
 U FO
 Gu ild
 div or
ot ers
 soph omore
 to pp
 week ends
man y
S ix
Offic ials
 stret ched
ip ing
 territ orial
 def er
M ass
 sand wich
 Pel osi
 cal culation
 Go ing
  ×
pe ace
 F ocus
ind ust
commun ications
year s
 me ga
f air
 constit utes
 incomp et
st at
 conf ined
oc used
 select ing
 Roberts on
 inform al
Ð° Ñ
 intern ally
if le
ou x
omet er
 po ols
 correct ed
 Sim ply
 N RA
az ar
 W alsh
ump s
ar g
 hack er
 sens ation
 J agu
 greet ed
 Bapt ist
ri um
 W end
ort ing
 d ice
 cool er
 partners hips
c ourt
me ga
 defin itions
 react ed
 process ors
 traject ory
 gau ge
 T E
 Cir cle
ans on
an ne
Th ink
 L anguage
 Kn ights
  ï
 home owners
\ /
 O mar
hol m
 prov oc
14 0
 flood ed
 L opez
 vend or
Ø ±
 compl ications
Oct ober
 V ersion
 cont ests
 ass ure
 cur iosity
 max im
igg ins
p olitical
op ath
 sk ate
 res ur
 fin ed
 R i
 hom eland
 ball oon
 St ream
B ob
 up rising
 o ceans
 Ll oyd
ne ys
 la wn
 liber ation
stan bul
 command ers
c ot
 compe lled
h ots
sh irts
IT E
 St ay
ind uced
 prop osing
C BS
 deb ated
 mach inery
 propri etary
 fair ness
 Advent ure
 all ocated
 h ills
 sh irts
A ut
 reck less
n ett
ela ide
 buck et
 Eth iop
g mail
b ird
 Dub ai
 arm ies
Sand ers
 compr ised
 pres cribed
 NS W
do ors
 Alz heimer
o ar
do ch
Ã ª
 He ights
hed ral
 unlaw ful
 E M
 W A
 color ful
Con tin
osp here
 delic ate
 N early
 pur ported
â ),
 Trans it
 sex y
 cell ular
 Inn ov
St op
 sl am
 o ct
 airpl ane
w r
 var ies
 t i
 stere otypes
 at roc
Ad ded
 was hed
 c ried
 cho oses
 C ensus
 th a
 nick name
 ment or
 The resa
 ub iqu
f ax
 suff ers
 not ifications
 Mar ines
load ed
 S HA
 story telling
 prompt ly
aze era
 femin ists
 qu eries
S IS
 L anc
 Greg ory
 project ion
D an
AN S
 debut ed
 pl ural
 Alf red
 19 00
 ambul ance
 parad ox
ic ans
 connect s
 reg ener
iff e
 Fl int
 paradig m
 broadcast ing
 after ward
 recru its
ant a
 strateg ist
on ial
 ten ants
 rail road
 Fal con
 C inem
 mor ally
Res earchers
respons ible
l ain
 exem pl
Su pport
 compet itions
 H ood
 M our
er k
 var ieties
 F ine
 Sch umer
 pot atoes
 P and
st ru
 cl oth
 transm itted
 gri ev
 C oun
d ar
 prest igious
ph abet
S aturday
 vis ibility
 stun ned
 sen iors
 Har bor
unt ime
x on
 Polit ico
Pro ject
 method ology
 Qu arter
 D uterte
 perce ive
is se
 voc als
 K ell
 L E
 comment ators
 cr isp
 Mag n
rist ol
 ha w
 gl oves
 Gl en
 eleg ant
 obst acle
! ).
 out reach
 pedest rian
 mil estone
 struct ured
M ORE
 pit chers
With in
M arc
 colon ies
be cca
on ies
 system ic
att ed
asp berry
 unpredict able
 co vert
ien na
 Championship s
 mis dem
IC O
 R id
 N as
 E arl
 fool ish
 incre ment
 weigh ing
 hasht ag
ust ainable
ld a
 sw orn
 ver se
 b acon
se at
ri ad
 sm ok
Al ong
" [
 cr ush
 yell ing
 Lib yan
 host age
 exclus ion
c uss
 he ck
t ag
a id
 bless ing
 Sol id
 ignor ant
H am
 Post ed
v s
 rom ance
 ren owned
 max imize
 insure rs
 N FC
 R BI
D am
 Or acle
 A A
 lo vers
 bar gain
w ald
vert ising
 interrupt ed
 F ortunately
 imp ly
ast ian
W ant
 teach ings
 gar lic
 impro ves
f le
 Bou levard
an ity
pi res
ov ak
 time ly
m iss
 rel ates
 hold er
play ed
 infer ior
 e Bay
 brut ality
 unsu ccessful
C ent
 dest inations
 prem ises
iv ia
ape l
 p ixel
ri ents
 acceler ate
 fin ishes
 B rent
w ere
ud er
 bund le
 Char gers
 preval ence
 br acket
 an nex
 vulner abilities
 l ament
 cr ises
 b od
 neighbour s
 M aterial
V I
aunt ing
  __
 discover ing
 t am
 T ap
 B ever
 works hop
 C able
m ajor
 uniform s
 out law
Th ings
 l ur
 k its
ª ã
 Win ston
 Lear ning
 Bro ck
 Imp act
 M oto
Republic an
 L amb
 s ore
 LGBT Q
n ull
b ia
 down ward
ond o
 ¼
 r ust
E p
 exc av
 discuss es
 privile ges
 n ep
 T weet
 St age
 embarrass ed
 phr ases
ai k
 Gonz alez
 Glas gow
 D iet
 appet ite
 Morr ison
 elim ination
 ball istic
 fe ud
 F ear
Ð ³
 J upiter
 " [
U RE
D ev
N or
ang led
 toler ate
 S ak
 unw anted
 U T
 a viation
 Blu etooth
b id
H and
 Aut om
M ain
 D ana
 g ad
re view
 grad uation
ag ne
at ivity
 Par ad
 brow sers
 P le
che m
 tw isted
 mar ched
id an
H op
r ations
Sept ember
 cle arer
it ches
 Aven gers
u ins
 championship s
 enjoy able
 sol ic
 accept s
 L ux
re ra
 L ay
ocaly pse
 recogn izing
 per secution
 T roy
] ]
 L iqu
 T ul
 gun man
 a kin
 H app
 bl aming
J S
 specific s
red ited
 W ake
 10 80
o qu
 wrong doing
 shut tle
b ps
 resist ant
 dis respect
ol ith
az er
 appropri ately
 The ater
 Pri x
zz le
P E
 con ceived
 GOOD MAN
 ã
 vac ant
 typ ing
 M ik
 F ighter
 U pper
 Reyn olds
C ong
Q ue
 l end
 A verage
id av
 b ore
oci ated
IN T
 dis abilities
ch ant
b ard
 ric hest
ar ak
 desp air
 Kh al
 J eb
L ive
 Fil ip
ect ive
 extrem ism
 P OL
 nomine es
 thought ful
 E rik
 N ode
 notice able
P y
 Ins urance
 p ipes
 ingred ient
 ded ication
 corner back
ä º
 right ly
G H
 tw ent
 thr one
 st ew
 prohib it
 B uc
 diam ond
 X P
ar is
J ul
 advoc ating
ric anes
 } ,
 mos qu
 M aps
nder ing
 tun nels
 fuel ed
 ex otic
 pr ag
 rep ay
 M ets
 He aven
Mc C
im en
 meth ane
den ly
 the sis
 t il
 ste alth
 Sat urn
 Turn bull
 I gn
B Y
 fr acking
 sens es
 critic ize
 Â «
U TC
L ead
 lo ver
 bed s
â ;
 entire ty
 detail ing
 war rior
 pl asma
 display ing
g ical
 out field
 M t
10 5
 P or
 artif acts
 Y am
Republic ans
 L ogan
 C rypt
ex cept
 g rit
 can on
it ives
 Trans port
f y
 Rep orts
 un just
im er
 recogn izes
 Scient ology
 sing les
 kn ocking
 Fre eman
 Con n
ev al
red dit
ins ky
 H ab
 bar red
 loc ks
US E
 Bas ically
 Sal v
gu ided
 dis asters
with out
S i
 prejud ice
ion age
 p ap
 Leg ends
achel or
 influ x
w heel
in ian
 head set
 met adata
 adop ting
in yl
 mer its
 mar athon
 fur ious
 acknowled ges
C ourt
viol ent
 S addam
 rest art
vas ive
 story line
 p ixels
D en
 tr aces
 PC s
 merc y
 cort ex
Sh ow
p c
M ur
 w ary
 w iped
 Edin burgh
 Pers ian
 an at
 band width
 num er
 pun ct
H u
 in accurate
 v ivid
 inst itute
 alt itude
 ill ustration
al ion
 off ences
 man kind
hel p
 Sing le
 l ag
OU T
 occup y
T en
 v ic
 c ows
 Start ing
) -
  ë
ry s
 preval ent
 round ed
 prolong ed
Get ting
 mur d
 Kn icks
 inaug ural
 exem ption
 sett lers
p ical
 FR OM
200 4
 d y
ram id
 coc onut
fl ight
 dis gr
 freedom s
Pac ific
 season al
A round
ey ed
ah ar
W it
 al um
 K er
 Aud io
ind a
 cap ita
 c u
 Mill enn
pl ates
um i
 R ange
 sm arter
ep s
 SU V
 indu ced
² Ð
 Pr adesh
 warr ants
 unst able
 p ave
 car pet
 A RE
K en
 exped ition
 er ad
 b ourgeois
li ber
Al most
 Dev il
M el
 mot ives
 f ist
br and
 fact o
C amp
 mag net
 program mes
 R ac
Th omas
 h over
 aggreg ate
 Emb assy
 accommod ation
 c ite
 C aval
c ig
C ode
 comb ines
 Fif th
 SN P
 de er
 vol can
> </
atin um
C e
 Spe aking
 st ems
 f lick
he ed
 listen ers
W R
 ta pped
 19 44
og s
 R ift
com fort
 diet ary
g rowing
 defe ating
c ourse
G a
 benef ited
 mir acle
 W u
f act
 program mers
 Hait i
P lan
 enthusi asts
lu ck
 counc ill
 cr ust
Jo in
ab we
 recomm ends
 I CE
 W izards
 bureaucr acy
 sanct uary
 critic isms
 st yl
 bl essed
 t ac
 rig orous
 hous ed
 B og
 symp ath
 gr ind
Rec ently
op hers
ic ates
V ery
 reb oot
 prost itution
 paper work
 unf amiliar
 sne ak
 upd ating
Phot os
 T C
 bom ber
e ou
 statist ically
 Cont act
sequ ently
 Progress ive
port ing
 length s
 pred ators
 un a
E lect
Ex per
 G y
 ru ined
 U nd
 C oc
ing ham
F re
 det rim
 L P
 Star bucks
 D ash
 S ales
 for fe
 host ility
 char itable
 heav ier
 d ilem
imb abwe
c n
 Elect ronic
 Jul ia
 un safe
ah an
 K ob
 I stanbul
 philos opher
h s
 position ing
 circ ular
spe aking
ess ors
 WH O
em ption
 coord inate
 ter rific
 rebuild ing
 ph osph
ick y
ched el
E nter
 Roll ing
 den ounced
C rit
 Bas ic
 Sch midt
 Ever ton
 ins ider
ist ically
Fr iday
 acqu iring
 R uth
Nob ody
ch anging
 E ST
B D
 ter ribly
 R hod
ill es
 simpl icity
 pers pectives
 there after
 crack ed
 forb idden
 N J
 Se oul
 Git Hub
ight y
 un m
 Ang els
 Hor se
t v
 port al
 Spr int
 super visor
 Tim othy
 C ork
or ie
 wh it
 Partners hip
de b
 illustr ates
 soc io
 j ournals
 f usion
 object ion
 l aps
 gr an
duct ed
R ock
Be yond
% ).
 sh ade
 O wen
ount ain
H R
 off ended
 Spe c
 big ot
 Mor oc
 P os
 j ungle
 A V
work ers
 sch izophren
 T ournament
 Roman ia
 analy zing
 tr action
 introdu ces
so ver
 L ag
rest rial
For ce
 request ing
 de vi
 antibi otics
 D uff
ters on
reat ing
ograph ics
 en act
 Not re
 ident ifies
 Frank en
Ù 
 Sher man
 H i
 20 30
pr im
 diplom acy
 Space X
is ers
 G ur
 Le Bron
 borrow ed
 Citiz en
le aning
 sl og
 intention al
 ul tr
 g rap
ist ical
develop ment
 P E
ish ops
 Pr inceton
rat ives
m u
 bro ker
renc hed
 cert ification
Add itionally
Bel ow
ian i
 aff idav
l ived
st ad
M ex
am el
 Lind a
 vol atile
 sh out
 inval id
 Victor ian
 fright ening
 pl at
 unch anged
 Moh amed
 skept icism
 S ame
O per
 Scient ists
 O kay
com plete
 ton nes
on is
 reg ain
 fat igue
 Al ways
N OT
 V I
cast ing
 so ap
et ed
all ah
 detect ives
 bet ting
 ar che
 Ma o
 end ured
 p ard
bl ue
 she lls
op ic
bl ood
S ar
 Poke mon
 PR O
 Bet a
if i
gg ie
 indic ators
inte gr
 Exper ience
 N ak
L in
 super b
 P ist
 J ill
 vis as
 v ine
 pl ac
 terr ified
keep ers
 sh red
 o d
 Ã ®
 health ier
iet h
 fav ors
 absor bed
 L iter
 Aub urn
 R idge
R un
 11 5
 Aust rian
b ial
 vir uses
 cooper ative
 Court esy
 d od
 f ren
 C ities
 restrict ion
 p enc
 clean er
 ant id
 Mur doch
p atch
p ark
" ]
 mir rors
 R are
 cap ac
 V ince
 lower ing
 Let ter
ng th
AG E
 K umar
 che ating
 â 
 interrog ation
 IS IL
ipp le
 bron ze
H E
 v intage
 pe cul
W il
 D ani
 sh aping
 Abdu llah
 E isen
 l av
 back yard
 19 41
 refr iger
 submar ine
 Pl ant
 Cl are
ink le
spons ored
ixt y
ass ing
 unus ually
 exclud e
 ph ases
sh ould
 aut op
aff e
OW N
 nort heast
 N L
 17 0
em a
 under going
 tack ling
 be ard
on so
 email ed
 free zing
 national s
 M end
 A hm
av ior
 take over
 cell phone
 c yl
in ement
ern ame
 horm one
 be e
ie u
 end uring
 sub po
 Day ton
 M ig
ook ie
 M iles
L uc
 squee ze
 devast ated
 Rich ards
 film maker
let te
gu ards
\ -
D O
 goal keeper
us ers
 Che v
 b ast
 brand ed
 Br is
 1 11
ices ter
 P ra
 str ains
 advoc ated
 p unt
 st int
 Sask at
 Sp art
 d orm
 beaut ifully
 Jul ie
it us
 communic ating
M iss
 R ugby
 psych ologist
 D ot
 Ann ual
 Fried man
 n avy
 proud ly
 pos ing
ins pired
ig ger
ia o
 super f
 tour ing
ick er
 hy ster
 govern ors
 ref ined
 Celt ics
 L ex
 ã
et c
H as
 alleg ation
â ²
 enter prises
  à
 do i
 met als
 mark er
AN K
 swit ches
 model ing
 happ ier
19 90
 NY PD
 Sim mons
 court room
g ra
 sub t
 N ice
w ic
K im
an ut
 imper ative
ed u
 24 0
 sc aling
d T
 Core y
fol k
el ed
anc ers
 respons ive
 interf aces
C ON
 sna pped
 announce ments
at ics
12 3
 exp on
ign ment
 pal m
Brit ish
 Every body
 E sp
 determin es
oss ibly
av in
 arch ives
 El ite
atter y
 st ip
 stretch ing
 O NE
lay er
P T
 wa ist
 bal ancing
ish ment
W eek
 } );
cu ador
 reiter ated
s ch
 retali ation
 undert aken
 rival ry
 a rose
 recept or
 develop s
 - --
W E
he res
 s oda
Im agine
 th under
 f ost
 cha otic
m itt
 DO J
 19 47
s ided
 ar senal
sh ots
Ð ¿
an ia
 Gr ad
g ie
inte ll
 Haw ks
 Con st
 inf ants
 M az
 st ellar
 travel ers
pect or
 hard core
in atory
 t in
 engine ered
Pal est
00 3
 merchand ise
B T
 tro op
 attract ing
 Me yer
 authent ication
 short s
 observ ing
 imp air
 gall ons
 ( .
 dece ased
 confir ming
 je ans
 Bah rain
 par an
 C atherine
l ate
B P
 min eral
 G ir
 critic izing
ount y
 compens ate
 agree ing
 appar atus
 predict ing
Ð ¹
bal ance
 rev ival
 special ists
 innov ations
 foot print
 anticip ate
 vis ually
 Pan ama
ick ers
P ay
 wor s
ump ing
 re ef
 poss essed
 pen al
squ are
 s perm
 F F
ill on
 ey eb
 l aughter
 B ee
 pul se
 V ision
 opio id
 Walk ing
if ted
 deleg ate
 Till erson
 ep it
ax ies
 was hing
ress es
as is
 rest ing
 core s
ac s
 w ipe
co se
 pot ato
 Ult imately
ad os
 Val ve
 V eh
 Map le
 distract ion
 har ness
 broadc aster
 war mer
 
 star red
 p ine
 p and
ì 
ing le
 aut umn
um bs
 clear ance
 Gil bert
 ne ut
 kidna pped
 b urns
 pri zes
 t ant
 war riors
 ele ven
P ict
 ro de
 s idelines
200 1
w ave
 Person al
 reg imes
Other s
 dump ed
 dom ains
 ur gency
we ather
uk a
! '
 hypot hes
 hand cuff
20 18
 ec ological
 end ure
K evin
 f og
 Cent ers
mod ern
at ism
 C AN
 h orn
 o live
 negative ly
 contract ed
g ents
et itive
 Expl orer
 Mana fort
Ch ief
Add itional
R ay
 r im
 visit or
 H erman
 capt ures
 their s
 select ive
re ci
 radio active
 b ilateral
 orche str
 dub ious
Le ague
 Brend an
ok a
Red dit
 crypt o
 bl ows
 pr inter
 react ors
 Produ ction
B ur
 con ven
 und is
 S hip
 van illa
 nod ded
 Hay es
 rad ically
 rep airs
 Merc ury
 Pen insula
 H ogan
ort ium
 seiz ure
mo il
 unbeliev able
 inst ability
ar ium
nt on
 explos ions
Ñ 
cent er
 sever ity
 volunt arily
 st al
ster dam
 log in
 ill icit
 Craw ford
ph an
 astronaut s
 shel ters
 screens hot
 Dam age
 fl ame
 bull shit
oster one
 que er
 ch ill
 Det ails
c am
 cont aminated
ent e
 E L
 R iley
 cons erv
b usiness
Ad am
 good ness
 s ights
 program mer
 Sc ore
 C ards
W C
E ric
18 0
 An im
 lone ly
ans ing
 acc use
 R apt
 Com ment
 Emir ates
h all
Up on
B ern
 assess ments
 B ristol
pro ject
 cr unch
Joh nson
 sidew alk
 subsid iary
 Us ers
b ag
Val ue
T ech
 content ious
 H arm
r ab
 prop he
 Leg acy
sc ope
 â 
 de ple
Ä «
 Pl aza
 Gr ass
 h ollow
 S kin
 Con way
 the rape
k ara
 d well
 path way
 pal ace
 stret ches
ir us
ff iti
 rob otic
 G ross
 dem ise
 b isexual
amm ad
 h unter
 fre ak
 disadvant age
 H ernandez
 pour ing
ug ged
 shut ting
 rig id
E nt
 Gr am
 Sp icer
More over
 direct ive
 And rea
F ind
parent s
 Sch ultz
 redu nd
health y
 rese mble
 j ealous
 aw aken
K n
 S aw
 Rep lay
a pped
 Bru ins
N ovember
Wind ows
M O
 re he
conf ig
 compet ent
 Le o
 cook ie
 empir ical
qu ency
 V ienna
 «
Y ear
 v om
 ru ins
 transl ates
 metaph or
 d iving
 Sh ane
ew orks
200 3
ed ay
 b end
en i
 withd rew
 s ack
H ard
 â 
abl ished
I AL
 surpr ises
 ren amed
 sell er
Ä 
 R oute
 l ou
 Hon or
 lau nd
S F
 ir re
 V i
 Y e
 Bl izzard
 char ities
 ex terior
ple asant
Bit coin
 cost ing
) ?
OL L
 Jed i
 relent less
 r anged
ott esville
 B ert
k owski
b uster
 in effective
os er
 to e
 d ull
 insert ed
 char m
fund ing
c ry
 do omed
 br ig
v ic
 F lickr
 C rist
 Bren nan
 tr aced
 dig its
 reminis cent
 Invest ment
 un b
 AP Is
 E gg
 Ad elaide
n at
 Invest igation
 D ell
 Con c
 ex ert
IS A
 le aking
af ia
 own ing
m g
 pres ervation
 po pped
 le mon
 s rc
 Che ney
 Reg ardless
 acceler ated
 Ult ra
P ublished
L ou
 mod ifications
 jump s
m ass
 J azz
 dict ator
 S end
abul ary
 all ocation
 sn aps
 viol ates
struct ed
T L
 juven ile
 Food s
 a ven
 repl icate
 her b
 download s
V ol
 p ensions
 pres erving
Am azon
 cont end
 not ices
 p igs
 reward ing
 merch ants
^ {
S B
 acceler ation
y en
w ife
 feas ible
De cember
 appoint ments
F ore
 C opy
 rad ius
OR Y
 tw ins
 m asks
 Web b
C arl
 un real
 K in
 T rent
elect ed
 y east
 att achment
 out dated
 laugh s
 Beh ind
Pr int
ident ally
 L ance
 F act
 up held
 sp ouse
 prosec ute
 M ale
 ra pper
 poss essions
 Observ atory
 po inter
 v andal
isc her
ant ry
cl amation
Ch inese
c lear
 Per l
 de af
 C e
ess a
l D
Ar ch
 N est
 ir onic
 195 9
 Jud iciary
 at oms
u pp
iv able
 up wards
I ll
su pp
st atic
 ret ros
 Pir ates
 in ad
 Br anch
 Kush ner
bor o
 Prote ct
 Z oo
 negoti ation
 P TS
 R F
 S oph
 veget able
 embr acing
 oper a
 Mc D
 10 2
av an
 Th an
 T aking
J ones
 train er
 prim itive
 E lementary
 Ar row
be h
 cont ributes
 res olutions
 fest ivals
 fert ility
 toss ed
 need le
 Beat les
 micro phone
st y
 spir al
 bomb ings
 le aning
 ha iled
 congress man
rec ord
 & &
 shr ink
 Sim ple
aw ays
 hun ters
 g y
 shoot s
 dwar f
R ele
 v inyl
in ational
( $
 cop ied
c ould
Å ¾
 v apor
 all ied
 cost umes
 Spe cifically
sec ure
 forecast s
 withd rawn
 mod ification
v ideo
 iter ation
 mechan ic
 mer ge
Î ¹
exp ensive
 10 4
 myth s
 Dis covery
S und
S omething
 Vol ume
 stamp s
Ð ·
 Dev ils
 G ul
fi red
 ch amp
 ap ost
E ver
 dimin ished
 discover ies
 disappear ance
T oo
 Man uel
od er
 Com edy
ob ject
 inspect or
 ch uck
 t ally
m ails
 Sa fe
s b
 e man
 Me et
do es
Bet ween
 anticip ation
 access ing
 vol tage
 cos mic
  Ã©
st atus
ate l
 doub les
im an
 uns ure
. /
O k
 smooth ly
ile aks
 T M
 out spoken
d c
 Rock ets
AC A
rib es
 tur moil
 Prof essional
an ol
 g aze
f alls
 sal ad
 K iss
 co erc
 gif ted
 ind ul
J ew
 my riad
F OR
A BC
 mamm als
 fr amed
 Ster ling
l ou
 l b
it em
oh y
 athe ists
lar gest
 rad i
 pod ium
 occur rence
 alleg ing
 airst rikes
 offs pring
 Mir ror
 Z imbabwe
f alse
c ity
 extract ed
 C ord
ush i
 o lig
 fore nsic
 valid ity
 p ier
 Hy per
 milit ias
 Tw enty
 adequ ately
tract ed
 Whats App
 M ead
 Ge off
 t outed
 South west
 Ali en
 sex ist
ac a
 jud gement
 U sually
 Ad obe
 fore front
 r ansom
 Mount ains
 Mem ory
 National s
 nar ratives
 na ive
 trig gers
 compat ibility
he id
 back drop
 neuro log
 celebr ations
S k
 D uty
 can cell
els en
d oc
 Mon ica
 Qual ity
 jud ging
 Tro phy
am ic
 stim ulation
 per ceptions
 imm ort
 B oss
 Beng als
F inal
 ground ed
ent ric
Dem ocrats
AT A
 extr ad
any on
 cr ashing
ph oto
 inter val
 elev ator
 Rec ently
 pret ending
 Fl ag
 m arsh
 sle pt
 B orn
lling ton
 B irth
 aster oid
 L ud
 Joh ns
  Ñ
  000
 Jo in
 exch anged
 Clear ly
oy s
V ict
 J et
iss an
 un ite
 narrow ly
 mark ers
or ian
 F M
 collabor ative
 success ion
 adoles c
Semit ism
, â
 e cc
d ies
C raft
 wholes ale
 Ter rit
 P ars
 contem pl
 Budd ha
 A be
 Al ger
 strengthe ning
J a
 just ices
Le vel
 clean ed
 K oh
 Bald win
 acknowled ging
 D LC
Islam ic
 top s
 Act ive
ustom ed
enc ia
Ult imately
11 5
 place bo
 un armed
 K ot
 north west
 retrie ve
 B le
us c
 H ond
 G rowth
  á
G h
our ing
ro ot
 employ s
part isan
 Kenn eth
is ure
 Leban ese
 super vision
J osh
 Ex cept
. ;
G roup
 Re b
» Ð
 sustain ability
 ind oor
 cl o
et ti
b efore
P i
s rc
 19 39
ire ction
 e ject
r il
Z u
 perfect ion
 Sky pe
W ow
 S ue
 comp ares
 Scient ific
 cur se
 Co ffee
 dom ination
ron gh
ub a
 spe cially
 nut rients
 18 00
 dec ay
 ash amed
 meaning less
 depth s
 evac uated
od s
 lun ar
m itted
c ir
 Re y
 Com ing
 reli ance
ors che
 disg usting
 bid ding
  ..
 Fl oyd
 Curt is
 pred icts
 hypot hetical
 dis charge
 w ires
b ands
 can s
 J ab
 h alls
 4 50
List en
 decentral ized
 sect arian
 G ri
 creep y
 My ster
IS S
 overl ap
 l ob
 susp end
 honest y
 B TC
 A part
err ick
 blast ed
D ig
 vers atile
 k in
 defe ats
 left ist
 N ike
 regul ator
 H av
 sc andals
ors i
 K ra
 rec onc
ari at
 research ing
 perpet rators
 ho ax
 2 20
 po orest
 be aches
 Jud a
 YOU R
 so ber
Se ason
L ittle
mans hip
 r ack
 frequ encies
 P v
own s
 grant ing
 exp ired
C apt
ay an
 Tr ack
 Mons anto
 C ros
L ess
 de ported
 Re ce
 fut ures
 Buzz Feed
 Jackson ville
c ulture
 B ass
N ick
 firm ware
 night club
 r abb
G G
 Â ·
 anarch ist
H uman
 Zimmer man
 v est
 O val
 Anc ient
 past e
 parent al
 govern ed
 Techn ologies
 super st
 lo oming
 S tern
 Ev olution
ass is
 tang ible
 sign aling
 rele vance
M aking
Pr ime
 sl ap
 R ol
Un iversity
 d os
 ramp ant
 turn over
 Abb as
dog s
bra him
 juris dict
 decl ines
 eval uating
 id ol
 livest ock
 J SON
h ig
 recycl ing
 cruel ty
cin ct
 sp ine
 Le ad
 F ernand
 extr action
C ast
 g it
 bit coins
is ans
 re ps
 Ch oice
 embarrass ment
 Kurd istan
 Bris bane
 §
 Tr ain
 Li u
 Any thing
Jan uary
 accum ulated
 relie ved
 bi ography
B rian
 Camb od
 false ly
 Inst itution
d w
oust ic
Yes terday
 film makers
 Ch arter
count ry
ig ators
N I
 E cuador
 correspond ence
 stake holders
 gl orious
 Hel en
10 4
 tax ation
 
 air lines
 Mid west
 Black Berry
 Res ults
 frag ments
 under went
 Can ucks
 sex ism
em y
 stat istic
 reinfor ced
 W id
 we ights
 diplom at
 real ization
 V P
 F resh
 Ev ents
 part ition
æ 
s il
 yell ed
ol ia
 hook ed
 distract ed
 V ita
F rench
 w anna
d isc
 Pr incip
 super market
 Viol ence
 Cr us
 A udi
 Co ver
 resemb les
psy ch
D F
right s
 anal ogy
 C E
Å 
 He ath
C ustom
A I
 stuff ed
 constitu ency
 sound ing
 gl oss
 divor ced
 to dd
 the ology
 Ir ving
 Up dated
 N are
secut ors
D eb
 mem br
reg or
 outr aged
 bom bers
 B il
te chn
 E asy
L ee
 indirect ly
 C ertainly
 j oked
r one
 ab st
 sh iny
 nom inations
 bur ial
he ard
 e ch
 B ened
 tr ilogy
l ia
C redit
 McC l
 g room
 IS Ps
 Ind ividual
st ated
f aced
 fundra iser
 Charl ottesville
 bu ys
 La unch
fe ed
,' "
 s ung
 ir regular
 Salv ador
Sub ject
 s outheast
10 2
 S ig
 E lder
 Can on
W al
P rior
met ry
 gl ow
 dr ums
 Per fect
 height ened
 Plan ning
 G ut
 comp uls
 con ced
 fraud ulent
 sell ers
 kidna pping
pl aced
 util ized
 goal t
 overth row
 belie vers
id able
L ight
 cho pped
 19 42
ter ol
ge ons
st ro
 br ass
 Des ert
 torn ado
 G ru
 suscepti ble
 ac ids
 irr ational
 F ans
 mel ting
tr ade
 Dar ren
 surround ings
rau ght
cre ate
Further more
 cease fire
 tap es
 B T
c ross
 miser able
 like wise
 st acked
o ids
Scient ists
 And ers
Top ics
the med
 D y
 ur ine
 AR M
Th ird
 T ier
 miss es
ad h
 pop e
 h ats
12 8
fr ac
board ing
arr ison
 pr ince
em ade
zz y
 S V
t as
clud ed
at em
En large
 pro claim
 catast rophe
 Mot ors
R om
200 2
 st oring
 p ent
â 
 unique ly
 s ang
rict ed
 remark ed
qu et
 N an
 com r
 lapt ops
clud ing
m acy
s cient
 H ag
 counc ils
 he ights
 195 8
 ex ile
Î µ
 inquir ies
 char ism
 Mot ion
 rec urring
 comment ator
l ins
 Gen esis
ig ible
 R S
f ill
Feb ruary
 \ (
 Pan el
 sur geon
 ende av
qu arter
N P
 J azeera
 D ucks
y g
 super natural
 Ar g
d ens
 Rh ode
a verage
 f aint
art en
 dis like
 Sa ud
th y
 cr acks
 > >>
 tub es
 Mic he
 Bl ade
 B ag
F ederal
 un pleasant
omet ric
 Schne ider
 Protest ant
d ess
 dest ined
 Ad mir
pir acy
 lif elong
 an th
 author ization
h ops
 G iant
 oper atives
 Like wise
 disagre ement
 F REE
H I
 different ial
 Beng al
 gal axies
ush ima
 elig ibility
n umber
 with hold
 off ender
ub s
 N ate
 con qu
 Ex xon
 Ang ular
 valid ation
le tin
 cont enders
 Wy oming
N F
 overt urned
Ch icago
 alle vi
O ld
 photograp hed
 mit igate
ood y
ot he
 surviv or
 pund its
 design ation
import ant
 Sh ot
W estern
c od
Cl oud
 Part icip
act ical
 spat ial
 weaken ed
 mad ness
 195 6
S W
 Custom s
che t
 intermedi ate
ir teen
 Kind le
 rev olt
S ave
 M illion
 ch ambers
 sh arks
 prop onents
d ue
 milit ar
 Per u
 Hu gh
 Gall up
 hon ors
 Fort une
 10 3
 Dav ies
 B un
 Am sterdam
PD F
 hint ed
 heter osexual
 N ear
 L il
 sab ot
 intercept ions
 L iz
 K em
 pun ched
 B erry
 conf isc
 prepar ations
 pr ints
 b ounds
 Econom y
qual ified
 Tre vor
ang ular
 to mb
 pl ague
On line
 grab bing
 Dian e
art z
A cc
 hero ic
 disp ers
 can vas
 Sh ia
AN G
verse ly
 Bre aking
 conver ting
 unt r
 Quest ion
 Cl iff
 Ð ¾
 Rhod es
uff ed
W ed
Mart in
 T ah
 V ers
im o
 un paid
 worth while
 rehab ilitation
id ad
re ne
 Con stant
 Prov ince
 clos et
 E ston
su pport
Cre ate
 compos er
10 3
ott est
 crus hing
 Im port
ific ent
ot le
it ures
c uts
 re op
ag in
 t enth
ic idal
S orry
st ill
k b
 discipl inary
 D iff
per ing
 franch ises
 rum or
epr int
entin el
 on set
  ï¿½
 po orer
 Pir ate
 d ur
ump ed
 w olves
 ex h
 Kit chen
f it
 Meg a
 y a
 lun gs
 forg ive
 spec ulate
sm all
co h
4 50
 un authorized
 mar vel
 P ierce
 B ot
 Am anda
 m um
 conting ent
 cos m
 law maker
 draw ings
 b unk
 reject ing
 g el
 ab normal
 R ee
 st ing
 P rest
 con j
 G em
l ings
J es
 f al
 W orth
 C oy
" );
 Bay ern
G ov
 pedest rians
 dest abil
 Nort heast
 P am
 aspir ations
- $
al ong
 Col onel
te xts
 zomb ies
 Bar rett
ex per
 sc outing
 V as
 su ing
ave z
 kid ney
ro b
 land sc
 ad vertisements
 ret ention
 F X
 E R
D ue
 abund ant
 K ur
 edit ions
 sm oked
 glu cose
 T ag
 My ers
d ain
G T
ra red
 fore see
 Â §
 g ays
ern ick
 Add itional
pp ets
ic us
 spl ash
 v oy
 cl one
 min erals
 Intern al
ass ed
 di agram
P an
A ri
stand ard
h re
en berg
Cong ress
 l bs
 coll ar
 install ment
 supre macy
 fall out
 reb ound
 d ess
 Rest aur
ris y
 w inger
 trans c
 M oy
T em
 z oo
z h
K it
 F ell
 ver ification
 Re becca
 R ew
 tel escope
hen ko
 l id
 Gu inea
 play ground
 align ment
 tele vised
 C anyon
v able
F un
 chance llor
C ould
 b un
 Hass an
 effic acy
 comp ilation
 co herent
 195 4
 t sun
 L akes
 Stand ing
R ather
L P
 Ly nn
a unch
 ro gue
 M ate
de ath
C ard
 att ain
 draft ing
 mortg ages
 exc uses
Israel i
l ights
 supp ression
D isc
D M
 cock tail
 cl usters
ul ators
Ex p
osp ace
 At las
il ib
 sm ashed
 south west
 organiz er
 D ance
G ET
 s aga
 all erg
 R SS
I Z
 st umbled
 sc out
 W ine
 Test ament
 stri ve
 V ic
 S ah
 app les
 R ating
 Ar s
 super star
 mon arch
 dis able
 plag ued
 dictators hip
O pp
f ocused
tar ians
 M oses
h ash
c ano
J UST
 disag reed
read ing
 circul ated
ri o
 gl uten
 country side
 sh am
M ulti
 ch orus
 unanim ously
 umb rella
 unders c
 pro claimed
 Gu jar
 accus ation
 Coun sel
 Com plex
 sem in
 D iaz
 pecul iar
Calif ornia
 Rock y
 V ote
 manip ulated
W o
 fant as
 Prem ium
 P O
 Le icester
 10 6
 persu aded
 staff er
 accomplish ments
he avy
 recept ors
 re jo
M ic
 mer ged
 mult inational
 US S
J ose
 prohib its
 f etch
 t iles
 ost ens
 ener get
 affidav it
 n g
 som eday
 Is is
kins on
 tor rent
 comp ression
 Wag ner
 J ak
m ove
 Jack ie
 intim idation
 instruct or
 lear ns
 C AP
 l ith
 Hug o
 l akes
 Comp anies
rel igious
 be lly
 protest ed
 unl ocked
int ed
 mess y
 brewer ies
Ir an
 War rior
 craft ing
 Pl atform
 19 17
½ ï
 dr astic
 S R
 Os borne
 st air
 innoc ence
 Indust ries
 b iblical
 rational e
C ore
 Re venue
 M AR
produ ction
Res p
 brow sing
 W on
= '
 f ade
 p anc
 head phones
 d ock
 D re
g raph
 therape utic
 stap le
 P ep
P ER
 s q
Pr ice
 Rock et
bel ief
 m esh
 Far go
u y
N early
 Qu ant
 est e
 d ots
if ax
 march ing
 fr inge
 cler k
 tele com
 Man ufact
 Ð º
OU ND
 maj ors
 commod ities
ex pl
W O
 T IME
 Nare ndra
ga e
 York er
T M
 N OW
S ad
 progress ives
 by te
 O w
NAS A
spe cial
 G os
 c ros
 b ark
wart z
 Ref uge
Ins ide
 sh attered
 IS O
 swift ly
 Rep ly
 segreg ation
 M ist
od ore
Austral ia
 freel ance
ret urn
 f as
Prof essor
 ang el
 G ig
 kill ers
 ne oc
um en
j ab
 dial og
 acc ustomed
ud ing
 C elebr
 adjust ing
n om
 ubiqu itous
 bad ge
 resist ed
 prop oses
in ters
 Euro pa
 7 50
 pol ite
 Wat ers
 R unning
W all
 reprodu ction
 Fe el
 car ved
us ra
qu in
cript ions
 sp ider
 neg lected
 dest iny
 ind icted
S ky
 A WS
 sett ling
 K ub
¼ ã
 ¨
 H uck
â¦ ]
 opp oses
 B ug
 w ax
 scan ning
 sk ies
 G E
ol iberal
Author ities
 R ise
 I E
 ª
 n as
 dilem ma
J ournal
 circum c
 Kore ans
 sol itary
 Bur ton
st ood
 g ospel
m and
 decor ated
 W ave
 poison ing
 harm ony
 co hes
 disreg ard
Every body
 Str ategy
bour g
C am
 accident al
pre hens
 Luck ily
ed ience
rele ased
 H our
 unt o
 Len in
 Bor is
 ant it
 Offic ials
y on
 shoot ers
ari us
 li able
t imes
 thank ful
 cross es
ger ald
 advert ised
 might y
 Link edIn
 A zer
 Eug ene
 emer ges
 Mour inho
 Cl aire
 misdem eanor
gl ass
 w aking
 repl ies
 T ay
gr and
 ge ographic
 Ang lo
 collect or
 Church ill
b ee
10 9
enz ie
f acebook
Sec ret
 Gad dafi
 Av iv
 Armen ian
 I o
h ma
 government al
 st alled
 r uth
an alysis
 St ark
Ch arl
 Orig inally
ffic iency
 concept ual
 thank ed
w y
 Rel igious
 New man
 doub ling
De ath
 Ser bia
 195 7
Go vern
 Dem s
 B oot
og ene
R on
 Sh ut
p enter
 Marx ist
 subm issions
 I F
cho ice
 station ed
 reprodu ce
 rem ake
 cyn ical
 F ury
 ric her
 Sug ar
 a ka
 Americ as
 195 3
ba um
 St yle
 N PC
 schedul es
 r av
Ð ±
te enth
 R ising
It em
 ver ge
 download ing
wh y
 weigh s
 br ace
w ild
 Lab s
 par ole
IL E
coh olic
 Hung arian
ang a
ag netic
 tra ps
 s ir
 Z omb
the ir
 specific ations
en za
 pir acy
 m ansion
 veget arian
= ==
 screens hots
 Nep al
 Per iod
Eng lish
f ashion
 concer ts
 system atically
ad ic
 unanim ous
C y
 gar nered
in vest
° Ñ
 gard ens
or ously
iv o
ut iful
 sur gical
 l akh
C BC
 v ow
 tum or
 proc ure
 psy chedel
 policy makers
 Fle et
 He ather
 o bey
 th riving
 div isive
 M int
w es
ace y
ET A
 } ;
 he x
 f ried
 l enders
 comment ing
 cl utch
 medic ines
 log istics
 Res earchers
 O L
 Ham mond
orm an
 certific ates
 S orry
ablish ment
F und
 rem edy
 exagger ated
 char ming
 D ocker
v on
 Ð ¸
 brand ing
 B A
M ary
 down side
ap i
! â
us ch
 was ting
 p ac
r anking
 enfor cing
 d op
 Out side
it as
 myth ology
qu ired
fi res
 st igma
Any way
 ant agon
 din osaurs
Sund ay
 Â 
 wild erness
 s ized
b ons
 spons orship
 F eed
 blog gers
 architect ural
m t
D ist
 Congress man
M embers
it ations
O u
 infant ry
 < <
 ign ores
 L I
 ã
f est
 commun al
 am ple
Con nor
 Nob le
 ( #
 T ool
 serv ant
 Sy nd
 E sc
 short ages
 An kara
are l
anger ous
 For ward
 imp art
l oy
 tweet ing
 depict ing
 cl oses
 Rap ids
 19 43
she et
 architect s
f uel
 p ads
 form idable
y et
 Syri ans
z ip
ord e
 ret iring
he rence
 S ed
 Freder ick
 se ated
 conce al
 anim ations
 F ri
 even ly
 d amp
 Hig her
 Ray mond
ig ated
 imag in
 pat rons
 crack ing
 acclaim ed
 S leep
à ¥
 ¦
H en
D ark
com b
 19 55
S n
 re de
 loud ly
 soc ietal
 Wheel er
 Ped ro
ist ence
 dr ills
 Cong o
 path ways
 ar ises
 aggrav ated
 bu cks
 T ut
 RE AD
ci um
N umber
 mass ively
 Le h
 Inter view
Qu ery
 V ern
op ia
I ron
 bod ily
 incap able
 Leg ion
 Re ich
 inject ed
 Writ ing
 D S
 C raft
b ishop
V i
 seiz ures
 K re
 envelop e
sm ith
 mon key
 inc arn
Start ing
be k
 Ne igh
 Kat ie
 A ce
 v ou
 ske let
 plum met
 a rom
 A FC
tar get
 ro oft
pl aces
 Ze lda
 cann on
art icle
 desc ended
 goal ie
 P owers
 L un
 Ven us
gener al
 M R
 supp lier
ik ed
au f
 imp ending
 evac uation
 deep est
 ref rain
 fire works
Ne ill
 grad ual
 sc ans
ab ee
sole te
ati os
 initi ate
ew orthy
 jurisdict ions
J ason
 S onic
old own
Gl obal
 last s
 where by
 Buddh ism
 rem ed
 Gard ner
H H
 who pping
 p act
n as
l ove
 anten na
 Sex ual
 L anka
D D
 RC MP
 aver ages
 un identified
U B
Ã ¯
ill ions
 ann ot
 c ough
 S ikh
 M Y
t im
 Rel igion
 pup ils
 Offic ers
 indu ce
 Sm ash
 Ph ase
 reserv ations
 compan ions
is ch
 Com bat
W ater
 proport ions
 counsel ing
 N u
 Hans en
 Joy ce
 ca ffe
ab ase
IC S
 for ged
 P orsche
g am
us a
 d itch
 C ond
 play able
 L SU
 explo its
 predec essors
 D B
pro gram
 merch ant
 affili ation
 a unt
 spect acle
 de gr
 Ext ra
 t apping
 rul ers
 nit rogen
 Vict ory
 re im
 ir responsible
) [
 truth s
Ne ither
priv ate
 renew al
 rent ed
ong o
 opp ressed
 bra kes
 sw all
 L TE
 Fight ing
 B rief
pr us
 med als
 b ree
 In come
 Ap ache
 cl an
 bur ger
 sw ear
en h
 s ou
 ca fe
 N olan
S at
 sens ory
 phil anthrop
 Andrew s
 circul ating
 Minor ity
 reg istry
 d ement
m atch
P ak
 photograp hers
 10 7
º Ð
re z
c row
 prolifer ation
 fasc ist
 eleph ants
UC K
 ch lor
17 0
Ã± o
 dem ons
 Card inal
me aning
 atroc ities
ef ined
 transform ing
 19 49
 und o
 obs ess
 gest ures
 Ku wait
 Sp ark
ok s
 Sant os
 H aven
f ounded
Ù 
 C ert
« ã
 T umblr
 st rongh
 maneu ver
 Re ality
 10 8
ep ernick
 t ed
 high s
 bre asts
qu ette
ich i
 r untime
 L enn
 G ET
ohy dr
 N iet
 E manuel
terror ism
or ns
com pet
 arr ange
 disrupt ive
 he mp
 culp rit
.â )
 speed ing
 P RE
ody nam
 mem e
 ch illing
 al ley
 aw ake
 good bye
 flood s
 ch unks
 success ive
 Product ions
 stri ps
 Ne o
 Bra ves
 lim bs
Semit ic
lu ent
 inad vert
b ai
 hal ted
 D ifferent
 and roid
 Med al
 o z
 mut ations
 alleg iance
 C ultural
 Fro st
 lau ndering
 R aspberry
 
P O
 Roy als
 Sav age
M ond
 st all
 grat itude
 Super ior
 Celt ic
 â 
 po pping
 Mah m
 rem n
 En joy
 mut ation
 expend iture
min ated
 rev ive
 S ans
 Cor nell
s al
 sl ope
 r ude
Ã 
 grab s
od o
Â 
 planet ary
 memo ir
 Ins pector
T B
 Elect oral
 Juda ism
 B om
 respect ful
 comfort ably
 NE W
sc ill
 sp ur
 lim itation
 inter ns
 safe guard
 P ine
 rest oring
c en
se ys
 Laure n
 C ous
 11 2
it su
 Rel ated
 vill ains
 Gar rett
alk er
 chick ens
 C OU
VID IA
Ã¶ r
pict ured
 p oker
 continu ity
 sur real
10 6
 D NS
 â 
. *
 Ch i
Ã¡ s
 cor related
comm ittee
OS S
 depart ed
 undergrad uate
 E cho
com merce
 Med ium
 tri angle
 rob bed
w at
C ru
 harass ed
 Gree ks
 Charl eston
st re
 pseud o
 Peters burg
ass er
osh op
 Res istance
co vered
 CON T
 world view
 We ight
com mon
 piv otal
 incorrect ly
 St ur
 for c
 Camer a
 except ionally
 authent icity
fight ing
 c ant
 su cks
 sad ness
 Bel fast
 profound ly
ett es
p aper
 gr ains
 disc rep
 bud dy
 sl ate
Tr ue
 di ets
 W enger
 ge op
 el bow
 syn chron
os lav
 simpl est
 sl iding
 commer cially
 inter ception
r age
 G olf
ih il
 Man it
3 60
 gener als
 P av
 tempor al
 into x
 camp ing
 un official
 G L
Des ign
 assess ing
å ¤
25 6
 hit ter
w on
 Market ing
 s ins
 Pop ular
 J ail
 Jo an
ex isting
 rem oves
d eter
 dis comfort
in as
 incarcer ation
 T SA
 P itt
 Har old
 obst ruct
 Rep orter
 Fl ore
 impe achment
idel ity
ast ics
Reg ardless
 resp ir
 l ure
 ess ays
 Pod esta
 am en
 nep hew
ut ory
R ev
: \
 ske leton
s kin
 z ip
asket ball
Intern ational
 hypoc risy
 execut ing
cent ric
 spec s
 cur s
s ince
ot ism
 Techn ical
 Ð ´
 inc idence
Mus ic
 dr ift
in ct
AC H
 equ als
 Seb astian
ar p
 Moh ammad
 19 46
Å «
 synt hes
 work load
 J as
su le
 ver te
 mis ery
 id iot
 T ucker
 Christ ine
 conf essed
 bl oom
is man
 spec ulated
  ion
 pharm ac
 squ at
 Revolution ary
M R
M em
 pil gr
 inj unction
 tiss ues
 e lic
 gra ffiti
 rain fall
on ts
 test osterone
err ill
 provoc ative
 decre ases
Ï 
act ly
 C aucus
w or
ik ers
10 7
reat ment
LA Y
 dis se
 Eth ics
 List en
any e
as io
 M TV
 sit uated
 P ale
 Col bert
 tot als
 P ain
 V on
B ad
 bigot ry
 R ole
 Mar athon
 campaign ed
 se af
 dev ote
 Sh ore
iss ue
 inflam mation
u cci
 coll usion
just ed
 n ud
 rul er
 board ing
 dec omp
 E ld
 inv aded
 Te en
 categ or
p resent
 puzz les
 Dur ant
 Bl ocked
ons ider
 Am nesty
 b aked
ub arak
ON G
 Strateg ic
F ort
 Rec ent
 inter vals
 un aff
 F en
 not ions
w ire
U k
 D EA
 N R
 
 per il
 L EG
 t abs
 schizophren ia
 Po or
Pro v
at ured
 dict ate
 sm ash
 U g
char acter
 vill agers
j ava
 theoret ically
 b aff
 st ain
 t an
 dis contin
 gram mar
 prol ific
 St rat
 bo il
b order
 Th ing
 repl ay
 F actory
 preced ing
 k ings
t ri
r itional
Will iams
 Drag ons
ov y
 qu ir
 fil ib
utter stock
d at
P ath
 special ty
 Lam ar
 Fly ers
es que
 conflic ting
 D HS
en ame
 out we
 P retty
sp ot
 S ize
lin er
g ithub
 toug hest
 sal mon
 o v
 F E
ir ling
 pair ing
 Le eds
L eft
 Arch ives
 st d
ob ic
 pre fers
t aking
 He b
 U AE
 R um
 V ul
 In fo
 Z hang
 2 30
 / *
 -- >
f at
L oad
E st
 bra ke
 Pat terson
 TH C
rain e
 neighbour ing
 in expensive
cap ital
 10 9
 sur rog
 Not ice
k top
 year ly
 Z ika
 l ocking
 inv asive
t urn
Never theless
 sm iles
 f ills
 C W
 Bul gar
 W itch
L ocation
Go ing
 ex pelled
but ton
 Mech an
 m ans
 cl ay
auc as
 m our
 wh ip
 Lie utenant
 Ep ic
oc hem
 expl ode
 ur ges
 pl ight
 Sh ir
ous se
ag ent
in h
 sim ulations
Ñ 
11 2
 rot ating
th ose
 Ã ¢
OL D
 ins iders
m ia
leg round
if ts
em on
Fr ance
 Indones ian
 em ission
 gig antic
 Mel issa
 Lic ense
het ics
 micro bi
 Fe atures
 restrict ive
et ics
 V oy
 Brad ford
og ram
German y
K now
 mail ing
 expl ores
 voc abulary
 rab bit
 dis cern
 ste er
 che at
b ud
 pass er
hib ition
j ournal
 Cu omo
 guess ing
 S ara
 N om
 det on
m oney
 rev ision
ak is
 univers ally
ym es
an mar
 app end
 gr in
 P rat
 pack ing
 install ations
IN D
 c ues
 St am
IN K
 Wh ole
 Gro ve
gl obal
 imper fect
 Cal vin
 Av ailable
 de port
 Wi Fi
h awks
 score r
 now adays
 pres c
 c rafts
 alert ed
 am azed
 Ar ist
 accum ulation
 S it
M u
 Nic ole
 imp aired
n ick
 vacc ination
 person a
Ã± a
 God s
neg oti
cl air
 h ottest
 Iss ue
13 5
 Bill board
 lif es
cr ime
 Ell en
 h ates
 M AN
 commercial s
 appl ause
 U ns
c amera
 Fitz gerald
 conf igure
 Cl a
 celebr ates
 development al
Sen ator
 post ure
 lect ures
 earn est
 Ch avez
ket ch
 r atios
 polit ic
 f ier
 defense man
 disproportion ately
Sec urity
 law ful
 br ink
 jihad ists
 exp ire
 Bay lor
 ritual s
 G erald
W ait
 smugg ling
 X ia
 Sol utions
d uty
19 99
 U E
c f
St at
rent ice
 subsid y
 distur bed
 d ictionary
 at om
 N D
le ys
 NAS CAR
cl osure
 Key stone
 descend ants
 sub ord
 remember ing
 Sor os
h unt
 a we
 Chap man
arr ay
 co ached
Will iam
 E c
ear th
ij i
 commun ism
 O UT
 Mar ijuana
 My anmar
ct ica
am bo
M ajor
 S ou
 S uff
 Gu atem
c ats
 oil s
 infect ious
 f ox
 cur t
oc ating
 expend itures
 De V
Step hen
 Liber tarian
h ic
 insur gents
 Sett ings
 H os
threat ening
b ou
 gl owing
 Tw ilight
 R ash
 rum ored
 Lind sey
 fo am
 # #
 horm ones
 experiment ing
W orks
 specific ation
 discrim inatory
 x en
 Nic olas
 air ing
man ned
 L B
 W ong
 W AS
 W ash
 practition ers
k ish
 fron ts
 construct ive
sh oot
 Philipp ine
R B
 13 5
 tra umatic
 Stephan ie
 fam ed
IG N
od us
 sm ug
ext reme
 sle w
k ick
Orig inally
 extin ct
 D ocument
 Opp osition
 gl am
u ously
ron ics
rat ic
 V it
. â
 defin ite
r ice
l ot
re te
 Cons ult
Â ½
av ier
 decre asing
Go vernment
 C ain
Similar ly
 Orig in
 But ter
 config ured
 C ed
 fr iction
li able
im on
 hands ome
 cler gy
 Zion ist
ur istic
 Sh awn
 d ynasty
 c emetery
 rest s
f ell
 Fuk ushima
 ) :
! ),
ign ant
ch in
T aking
e vent
 pe as
 Com ments
 p etty
10 8
 Dis play
che wan
C ost
 pol ished
 E N
 Gujar at
al ine
 m ocked
 M ental
F E
 H oo
 municipal ities
F ast
 exhib ited
 nic otine
Com ment
il ot
 W rite
 Les lie
land er
Sen ate
 L ac
 A CA
ms on
r ance
B LE
un ion
al ks
 tsun ami
 Ph arm
 P izza
ere n
 consult ed
r ace
 fort unes
 jud iciary
ail ure
 unre asonable
 t ipped
 Fred die
 Stand ards
¨ ã
ld on
 tr act
 W ILL
 p arl
 Resp onse
 restrain t
 out doors
 O g
 Sol omon
T urn
iz a
 sal v
 T yson
 ins ign
 hist ories
 C oul
 revers al
 Psych ology
M il
 phenomen al
 sand wic
bo at
B U
 cyber security
 bub bles
 SS D
¦ ã
 f aded
 s ulf
AR S
 disp atched
 schedul ing
 Has kell
all ic
 l amp
 interpret ations
ic z
ro a
g ic
At lant
reg ulated
u u
 employ ing
 Te ams
sh ort
it ious
 Patri ot
 Os ama
 195 2
 Ch ang
 t earing
fin als
 plug ins
 Fr aser
 cher ry
t xt
 Cy prus
 inv ari
ra vel
 mon uments
 Tre nd
g it
st ation
r ig
com pl
at hing
 Tr inity
 mush rooms
 I PA
S ystem
ber ries
 geomet ry
bro ken
 Brig ade
l ace
 p ains
 tr unk
 distribut ing
 T ow
 esp ionage
 rent s
 ra ided
w ig
 millenn ials
T i
 grand parents
 Oper a
 s arc
 ge ography
 boost ing
ed o
 Resp ons
 D uck
´ Ð
 part nered
 Short ly
 N issan
 Hell o
 A W
 Dog s
 fulf illing
 penet ration
 Ast ros
 p ins
 outs iders
 blat ant
 sh ale
 inc ub
 commem or
in to
 m asc
A p
 pass ages
 collect ors
 Non etheless
 mand ated
medi ately
R Y
 15 00
ak o
 1 19
 D h
 sl ash
 drag ging
 Valent ine
el o
 L is
 e clipse
 Char acter
 hom ework
 supp lements
 obst ruction
 Ass ass
E arth
 App lication
 optim ization
 Sh arks
E conom
 Det ective
man agement
 pro se
 start ling
aunt ed
 Un block
Mat thew
 M K
 Innov ation
z ero
 Bened ict
 pro pe
 Roc hester
 rac ially
 long standing
/ -
O G
 strengthe ned
 regul ating
 clar ified
w agen
ALL Y
 Ñ
ric ks
N ov
Å 
 s acked
 discour age
 Ahm ad
Or iginal
 read ings
 in mate
cl ose
 Interest ingly
gress ive
c orn
 sy rup
 hop eless
 ecosystem s
i very
 he ars
H ER
 As ked
 fin anced
 bl ur
 C V
 manifest o
  iv
ess im
S ize
 Arch ive
 Fron tier
 conc urrent
 P P
 Mig uel
 right eous
 gun fire
 sort ed
 G C
 eth ic
 par ap
B ase
11 4
 Un known
aj a
 stat ues
 mar itime
l aughs
lu g
 sub set
orn ings
 gu iding
C ase
 Kir by
s ki
 gen res
 12 3
 heavy weight
 sp un
 S ke
 compet ed
m ulti
 Jav ascript
min es
c ritical
T ar
 optim ized
 m aternal
 D uc
 n ap
 L ith
EM A
 Y ug
 Motor ola
 19 33
ob il
St and
 d Ã©
p ent
 rec onsider
 jewel ry
 fat ally
 bl ues
 Ex pect
E ast
 Decl aration
sh are
 leg ends
 youth s
 oun ce
 indic ations
pat rick
 ch ased
ar us
 out going
 l y
 A viation
 fron tier
 L ords
 Art icles
 fulf illed
 B end
 gate way
 Spot ify
Pre vious
osoph y
 ethnic ity
 arc ade
 Fr am
 proceed ing
 kind ness
 inv oked
 inflam matory
ld om
her ty
ag i
 run way
 exist ential
pp e
 dial ect
 John ston
umb les
ent on
crim ination
act ivity
 cart oons
. â
 real izes
 b ully
 tra iling
³ ã
 Ch icken
end ant
 open ness
F lor
 All ied
 Joh ann
 Art ist
 deploy ing
 Ast ron
 pump ing
 Do om
P op
G ar
 works hops
 unle ashed
 Publ ishing
 pen insula
clud es
 ad am
 Jac obs
 Cor rect
cept ive
 impl ication
 explo iting
 un available
 re print
 oblig ed
 Pay Pal
 Is n
p osition
 mod ular
ra its
N R
 organiz ational
 sk et
 Any way
Bre aking
 overr ide
 s unk
 defect s
asp oon
 Ch art
 Bar on
 25 6
 rock y
 Fr ances
 H il
 bur nt
 coh ort
 astronom ers
 pray ing
 R ena
 Pre vious
w p
 I brahim
 unexpected ly
 Mon roe
ing es
aw k
q qa
 moist ure
 kn ives
 abrupt ly
ov able
 m und
 res c
 oversee ing
 hold ings
 H oney
 Afric ans
 ch ord
 par cel
ruct uring
 pe aks
 fram eworks
 parent ing
 ob ese
 f erry
9 99
 hesit ate
 V PN
 yield ed
" ?
 challen ger
id as
ut sche
he ne
P ack
 Sh annon
 e ve
 Con nor
 wor m
iv or
w omen
am o
 spl itting
 Ar ms
 was t
 Ott oman
K at
 vib e
 visual s
 adm issions
 Mart y
 B ast
 Sol o
 Sc out
 V ander
 termin ation
 w ishing
ys ics
 K ol
 philos ophers
 ev id
T it
Oh io
 F ry
 Athlet ic
T F
 Int o
 as semble
 Stock holm
 Cy cling
bet ween
 to re
 kid ding
 ch assis
 notor iously
Clear ly
 L ok
 c er
C oll
 summon ed
 bl ink
 plant ing
 label ing
 WATCH ED
â 
H appy
AN C
old en
 Jan et
z man
 Sa id
U MP
P arent
 N I
 not ify
 Custom er
yn ne
att led
 spont aneous
 h iking
us ually
vis ors
fil m
s end
 p enny
 energet ic
 ( (
 P resent
 with stand
 he ap
est ablished
 decl ares
 ceremon ies
m ut
 mic row
 grand children
 broadcast s
 c av
 Sw ord
 slog ans
 fli pped
 bacter ial
 A ber
P en
 Ka epernick
å 
st own
 A NY
 con quest
 17 5
lu ence
if ty
 wand ering
 hand ler
 gener ators
 under mined
 hom emade
 bi om
 Com mercial
> >>
vid ia
... ]
m ort
Jew ish
 sil icon
t ab
 bl onde
op a
 demol ition
 central ized
 per vasive
 Al bum
 mod s
 f ixture
 N ug
 M ult
e us
 be verage
r anked
 hall uc
 Opp ortun
 trigger ing
Event ually
 motiv ations
 exclud ing
â 
and ro
 escal ation
im ating
p ng
 G IF
 str anded
 soc ks
 Sy n
 w izard
 coun ters
 G amer
 K ris
 tomat oes
 drunk en
 Am azing
T ele
M rs
 C ec
roll s
 progress ed
 S ally
 K abul
at ible
 D ew
 s lick
 Aur ora
 b ids
 Sec urities
 H iro
uck land
J udge
 fil ings
 d ental
 sp rawling
 O dd
 Mac ron
 Field s
£ ã
 or thodox
 Â 
 Peng uins
bur se
 Bur g
 stub born
 T ank
 Def in
reg ulation
Bl ock
 ob solete
 n i
 proced ural
ee ks
 pu ppet
 D raw
 met ropolitan
 P ixel
 N igel
get own
: [
 Tor res
 respect able
 los ers
 Reg ist
 Hann ity
 bureaucrat ic
 M Hz
dig it
are th
A ud
 block ade
 19 14
p b
 sat ir
acc ount
 squ ares
 sidel ine
 sod ium
 mis guided
 O ption
 Hor izon
eng ine
 Sant orum
 New ark
 pione er
 thro tt
 resist ing
 R oh
 p as
 con quer
 d urable
ud o
V ia
 rese ar
 re claim
in j
R od
 high ways
 gl ue
rox imately
Pro t
 reject s
 datas et
 Mo zilla
 C rim
 a isle
 Rut gers
 l ent
 Sh ap
ocaly ptic
m ag
 stat utory
 mat urity
j son
B at
H O
 bus h
 Î ±
 l ord
 caffe ine
 cancell ation
e j
 Ste ele
 Per th
 restrict ing
 synt hesis
 Mad uro
 Bur ger
L im
 D as
 imag inary
Pri v
 y e
 B U
 metab olic
17 5
E V
 bal ances
 Black s
 mon keys
u ph
 van ished
to ok
ra il
uss y
 test ament
 assist ing
 respir atory
c reat
 ) )
 p ant
 Su ccess
 Sch war
 ass im
 v ault
 R andom
 al phabet
 se ating
 h urd
 Advis ory
 cub ic
 che ering
Ï 
 le isure
 F I
 s igh
 lab s
 Res cue
 smok ers
 imp over
 Luc y
go ogle
 decl ar
 stress ful
 n er
 util izing
 can cers
 ar rows
 P ure
oc re
 magn ificent
 vis ions
 disc arded
 arm ored
og o
 prev ailing
 consult ants
 PTS D
onge vity
P ad
och ond
 A gg
 rum ours
e ight
 dem ographics
 un for
 sin ister
l ated
 vers a
not hing
 re write
W he
 th ieves
 ce ased
 F ah
l ists
 object ed
 Mo z
 F usion
 F ul
 E VER
 Pod cast
ib i
b oot
al most
 standard ized
 lik ing
 laund ry
 elect rons
avor ite
 ab using
 c raz
 insist ence
 cir cuits
 ad here
 Joe y
 exp ands
B er
ows hip
 live lihood
rac use
ach ine
 W ool
 pro let
 Vol ks
 arbit ration
 Quest ions
 L uk
po ons
Se an
 impress ions
 G ren
 195 1
 tele communications
 aut obi
app a
d rive
2 40
ver ts
 sc aled
Mond ay
 jud gments
 R iot
ess ment
 ne oliberal
 ac oustic
S ervice
 reli ably
 V ari
ve illance
Th ursday
 a ided
 We ber
 19 18
f orth
T s
 rehe ars
 aw ait
 T witch
 pump ed
 Cre ated
 A ges
 19 38
CL OSE
S ex
 de ception
 M ubarak
 Green e
 Dani els
 stim ulate
 promin ence
 incons ist
re ally
our cing
 P ool
aci Ã³n
 Sad ly
 fear ful
 dis connect
 Sub ject
 Antar ctica
 condem ning
 ded uct
 bl o
pl ic
11 3
 diff ers
 sacrific es
 B ath
ble ms
 Whe never
 grad uating
 Hoff man
 te aspoon
l oss
 prov oked
 Mon itor
 Phys ics
 Mar riage
Just ice
 forb id
 D ear
 Ana heim
S ta
 che ek
raft ed
 M au
g ag
B rad
 disrupt ed
ell i
 H ers
 Wol ver
 disgr ace
 n ause
 rou ter
 AC T
ru ce
ilib rium
 text ures
 termin ated
f ighter
Res earch
 elev ation
 jihad ist
 ³
 pack et
 11 4
ff ield
tr ain
 bull pen
 Hann ah
Com ments
 nostal gia
 L inks
 R OM
 orient ed
 hur ry
 st ared
Short ly
V an
Or gan
 un sett
 comp ute
 Stat us
 collabor ate
 Ton ight
 Finn ish
 Manit oba
 theat rical
pe x
l oc
per fect
g all
F riend
 V II
 Boy d
re lease
 Hist orical
 he fty
 b olt
 Sch wartz
 Crit ics
 res umed
 pir ate
ish i
i ago
 R NA
 sky rock
 pir ates
St ay
 conserv atism
 She ikh
 G ust
m ur
 Wik ileaks
 presum ed
d t
 mel ted
Sc roll
 wheel chair
 sh ru
AN N
 tro lls
 n arc
 hel pless
rodu ced
 end urance
 ca pped
 Elect ions
Ã ¦
fashion ed
 re written
 mim ic
 l ays
ang ling
 overse es
 m s
11 7
 U ru
 ostens ibly
 S co
 tempt ed
ug ger
ev il
 P om
 bur dens
bet ter
 rev ol
 conf inement
p ine
 J P
 In sp
 I X
Ã ´
 pun ches
Japan ese
 m og
 sc outs
 unfair ly
 key word
Writ ten
od i
 w aving
 Mic key
 L if
 ing en
 Ori oles
l aughter
 ins ults
 DI Y
 D ol
 th igh
 ID F
 ur l
 Will ie
 Y ORK
 fold ed
ad an
Act ually
 gun shot
ym ph
 out ward
 t ones
 Kaz akh
 viol ently
 harm less
t ree
IN S
 V C
M oney
mod el
F ight
 legal ized
 Ug anda
 a ce
 guess ed
m d
 Gold berg
d ates
 rec ap
 gravit ational
 dr ank
 r h
Ne il
 Ar ray
 Kn ox
 rot ate
 pipe lines
 Re ason
 think ers
 P ull
F M
 metabol ism
 fun nel
 ter med
 sal vation
 Hard y
 transfer ring
ati ents
 command ing
 Book er
un ched
16 8
 tur f
 mut ually
 joint ly
 be ts
 er osion
Tur key
 exerc ising
 R anch
M ag
 un used
 sp ies
 pol es
 bo ast
 [ â¦]
 Sy racuse
us age
 Saskat chewan
th ood
 team ed
uis ine
 class ics
 mon st
 He in
Ant h
 World s
 D iana
so ld
oper ation
 Per kins
out heastern
f ig
 Develop er
 rig ged
 subst it
 filter ing
EN S
 b ishops
st en
 esc aping
j et
 warm th
g ot
el in
 be gging
 Croat ia
 market ed
 anti qu
 undert ake
 C ory
id is
L ate
St ream
 Sh am
 B ie
 ve in
ser ies
 L ap
T ell
 spe lling
al an
 guitar ist
 d ar
 L DS
 Liber ation
 Rom ans
6 50
 deb ating
 H ours
and ra
vent y
J i
 squ ir
25 5
 Re ader
 s ands
h p
 wid ow
m ot
L ow
 pe aked
is al
 spec ulative
 19 0
c ause
 roll er
 C lement
s aving
it imate
 res ett
 South ampton
 S z
B on
 B oulder
 acqu aint
de ad
 melt down
 marginal ized
In f
Cont ent
å 
 fair y
ur prisingly
bel ie
 reserv ation
 Wel come
 A HL
 cum ulative
 fright ened
 S inger
 inspect ors
or f
im i
1 19
 sem if
 discount s
 3 000
ah on
 cock pit
ut able
 sc ent
 boost ed
 Azer bai
ag her
 separ ating
 pro w
adi ens
E ight
12 7
 O T
 con texts
 trans itions
 Pro blem
 overd ose
 dist orted
R est
 River a
 un se
A ction
 POL IT
 t sp
 Fernand o
 Proper ty
 O re
 Min utes
Sm all
 Raf ael
 pled ges
 f als
 R osa
it ating
D ead
 en sured
 Em my
 pack aged
 dep icts
 o mn
 Rain bow
o zy
 hazard ous
 dis may
 am nesty
 E y
ult an
 execut ions
 cl icks
def ault
 F AA
P res
 out lines
 Jagu ars
 d reamed
 chief s
 there of
 hall way
 us able
 Bea uty
 cor al
 sho ppers
 s cept
ay ette
 note book
 block buster
 s ocket
 envision ed
 undert aking
 f oes
 bit ch
 Play ing
 vari ability
 el usive
 CB D
ov sky
ne xt
l ower
 B alk
ib a
 over weight
 all iances
 Man ila
2 20
 Con tract
 y en
 slic es
 pro ps
 possess ing
AT T
 cinem atic
 A AA
lic ations
 pr ud
 sn iff
 p ony
ome z
IS H
 K C
 Su z
 Ph antom
 M H
ex e
 Th reat
 G W
È 
 oper ative
Qu ick
 F ol
 Mah ar
 D ort
 Clint ons
 Block chain
 f eder
 A ch
 Ed gar
 I rv
S ir
 lo ops
g ard
 earthqu akes
 Islam ists
 H outh
elect ric
 Writ er
 Com pl
P ark
 rall ied
 19 36
 Admir al
ro val
 f erv
 N eal
 Re pe
 me lee
 autom obile
ow ler
Ph ones
F X
 bo oming
ib o
A g
 deal ings
 P BS
 un healthy
 cop ying
 distribut ions
 Dri ver
 Az ure
per cent
ustr ated
 t iger
 Rou ge
pro bably
 substant ive
 lear nt
K A
 unint ended
 sail ors
 har med
 gu ild
ur ai
 Bron x
+ -
 surpass ed
H ad
½ Ñ
 H ull
a ic
 F lying
 nerv es
¼ Ð
 lobby ist
 Caval iers
 punch ing
 N em
 red dit
an z
 exceed s
 discrim inate
 B olt
 K O
ER Y
 t read
 par ody
 C ody
 Bulgar ia
 Bund es
T uesday
 Dr um
 profess ionally
 coord inates
 ir res
 b iod
 ã
D L
ic ular
G ate
 S we
Des cription
 o re
 Ch anges
indust rial
us r
 Ab ove
l ane
 capt ive
 gentle man
 Where as
 t ying
ical s
 as ym
 F emale
 call er
â¦ "
 Do ing
 anom al
 amount ed
® ã
 Holland e
c um
 Shar p
an ed
G i
 prop het
 My th
ud ic
 foc al
 final ized
 
 Tam il
 Hol iday
pr ice
OR N
Char les
 Key nes
 newcom ers
 â
 F ur
 Ca esar
 genet ics
 R anger
and um
 set back
 assign ments
 borrow ers
 z oning
 W o
 d aunting
S cience
 to es
 det ract
 extr as
 shield s
 T ot
 ensu ing
á ¹
inn amon
ier i
AF TA
 bright ness
grad ation
I AN
 sem ester
 intercept ed
 Prot ocol
 subpo ena
ovak ia
 lie utenant
 correct ness
 cor pse
 : =
oss ier
 Unc le
 Ham mer
 cat cher
D ER
 qu oting
 L or
 I GN
 H ang
 physic ist
 discipl ined
 plaint iff
 pe ek
 c ush
 ann ounces
 O C
 mult itude
 n ails
 g amer
Ex pl
 outs k
 national ists
 c ries
 T B
 Sp o
 Dem on
 comp osite
 command ed
 David son
 ã
dem and
 sw ings
 Phys ical
 G ol
pin ion
 ende avor
ti z
 disg ust
 T as
 H ash
h om
 correct ions
r Ã©
Rec ent
 autom otive
 Mar tha
sc enes
 twe aks
 r ays
 dump ing
¿ Ñ
 Frank f
 ro ver
 Chand ler
Ï 
 point less
m age
 Rober to
 bureaucrat s
 se ldom
 sc rim
 turb ines
 L omb
 Wend y
 S entinel
 collect s
 m ish
 st aging
 Sc alia
 K err
at he
 C aucas
 sculpt ure
 ch anting
 Jenn ings
 A AP
vey ard
ets k
 erect ed
ge ant
T imes
 fasc ism
 NE WS
Inc re
B orn
 Dep ending
in arily
 Ab original
So on
 k o
' ;
 aud ition
 attract ions
 P ipe
 Organ isation
ig ued
 lim b
rr ha
oc ese
 cur ves
 We aver
 Nap ole
 N VIDIA
 P on
 p essim
 ha voc
 g um
 H Q
 e greg
 I CO
iche ver
 cow ard
 C ave
 week day
A sh
 upgr ading
 tomat o
 ch ore
Play er
 day light
ric ia
 Sl ow
T ony
 p ne
 thr iller
 t et
 re election
 liberal ism
 W S
ul atory
 toler ated
 fat ty
h oles
 ambig uous
 present ations
 mot ions
 Inst all
z on
 dev ised
 break out
 m ug
ete enth
car bon
 thr ill
 outs ider
f acing
 stand alone
 H ank
 supremac ist
 Multi ple
 D OM
 inter change
G ive
 ref lex
 McL aren
Ù 
 Leaders hip
at ts
 imp ulse
 m ornings
 outf its
 coll ateral
 D ion
 sun ny
ç 
 twe ak
oss ip
 great ness
 contin ental
 id i
 That cher
wit z
 V IP
 dem ocrat
se ven
olic y
 lands l
 Tunis ia
 Fl ip
pos itive
ixt ures
 st are
 Ste fan
 Iv anka
 E state
S ep
 CEO s
 pol ish
 bl itz
 F alse
S her
 renew ables
 S ax
 b ishop
 Rick y
it ic
 S IM
 C AR
 spread s
 imperial ism
l ich
 Restaur ant
 Effect s
G Hz
 inv ites
 Sim s
 Bar cl
protect ed
 or n
 ¯
 P ill
l ab
 re aff
 A gu
Mod el
 em bed
 outsk irts
f ed
 Cher ry
 ex cel
 dec ree
F K
 str at
 multi ply
ar go
 lat ency
re aching
 impl icated
 Add ress
 tun ing
 resil ience
 intellectual s
 R d
 G und
 rain bow
b eck
M essage
 Rom a
 po ke
 ex ams
ann ah
 or deal
 linem an
[...]
