  t
h e
  a
  s
  w
n d
 t he
e d
  b
 t o
 a nd
  h
  f
i n
  T
 w a
r e
i t
o u
  l
  d
  c
  p
a y
  m
e r
 wa s
o m
 T he
  he
i s
a r
  n
i m
o n
 s a
i d
l l
 h a
  g
a t
  S
in g
o t
e n
a n
l e
o r
i r
a m
e t
  H
  it
 t h
i g
 The y
i l
  in
 p l
 H e
  "
o w
r i
v er
u t
 b e
  u
 sa id
 pl ay
it h
 d ay
 w ith
p p
  o
O n
  y
o o
  r
k ed
 he r
c e
  I
 S he
l d
 T im
 h is
 s t
k e
  e
n t
 b ig
c k
 y ou
ver y
s t
v e
e nd
u n
 ha pp
  on
ri end
 f riend
a ll
il y
  L
 the y
 w e
 ha d
 n ot
 l i
 u p
he r
 wa nt
 o f
a d
it t
s e
  B
 d o
e s
 happ y
  very
  M
en t
 th at
 sa w
On e
' s
ou ld
 m om
 f or
 s h
itt le
 l ittle
 s o
 s he
c h
im e
 n am
. "
 t ime
  k
ou nd
 the re
 nam ed
 n e
 s m
 b o
 we re
 L ily
 want ed
 b ut
ou t
T he
 friend s
v ed
! "
h t
 T om
ir d
e l
 b ird
a l
 a n
a ke
 to o
om e
 I t
u g
id e
 w ent
 w h
 he l
On ce
  is
 a ll
 hel p
u e
 l oo
 l o
t er
  A
 up on
r y
o re
 f un
g et
 to y
i ll
i nd
r a
am e
 a s
 a t
  j
 d id
get her
u r
  re
 s e
 to gether
 b a
 c at
l y
oo d
i c
 t re
t ed
 do g
 c ould
 c an
 the ir
e c
ar d
ar k
 g ir
 play ed
 h im
 b all
? "
 gir l
w ay
 r o
 g o
he d
m y
 a re
  out
 l e
 f r
 k n
he n
 the m
u m
' t
a in
a x
 sa d
u l
 bo y
 tre e
ot her
 ha ve
 m an
 c l
 lo ved
 loo ked
ou g
 f ound
 s p
 st ar
 S ue
on e
h ing
 s c
 ba ck
ow n
 M ax
 li ke
a re
f ul
s ide
 m e
 be c
 p ark
ig ht
on g
 c ar
o p
el t
  One
 li ked
 w ould
 m ake
 l a
 f a
 f elt
r ound
Y ou
  W
e ll
 se e
 B ut
om et
 as ked
 ne w
 n o
i ce
 S am
ou se
 star ted
ar ed
 c ame
 B en
 a l
  other
oug ht
il ed
 s omet
 a g
 g ood
 sm all
s s
 b r
 sm iled
 s ay
ri ed
ad e
ing s
o b
p ot
 w or
 f ind
 e x
a g
i a
 a way
t y
 p ut
 c o
 wh at
 somet hing
 fr om
 m ade
 th ought
en ed
 h ome
 play ing
oo k
 e very
 wa l
 m u
u c
a ch
ar n
 S pot
 r an
i le
  F
i e
 f l
  J
a ve
 ag ain
 s ome
 la ug
d d
 h ouse
 d own
 too k
 sc ared
n y
 p r
u re
 toy s
 le arn
  You
i f
e p
 w ill
 bo x
i ck
re t
k ing
 m y
 a round
 th ings
 you r
ou d
 b l
b le
u ck
 w hen
is h
 li ved
 f e
 the n
 s un
 s w
, "
 c h
u s
pp ed
 M ia
an k
 g et
uc y
T im
um p
T h
 l ot
is t
a s
ot h
 t ried
a p
 kn ow
 say s
 g ot
it ed
 wh o
 kn e
u st
 a b
 man y
 ab out
L ily
t o
 p ret
 d ec
 an y
 r ed
  D
i ve
 kne w
a ce
ou s
 m ore
is e
 c are
all y
a u
q u
 h ug
 L ucy
 learn ed
 wa ter
f ter
  v
 bec ame
 be st
au se
 o p
 g re
n a
 ex c
ur p
way s
â 
 out side
 laug hed
 p o
 loo k
n e
 al ways
 t a
 p ic
 dec id
 sh ow
 t r
an t
 B ob
 ro om
f e
 h o
 decid ed
 bec ause
 S o
 in to
 e at
it e
 p e
 j ump
 A nd
er s
 b oth
nd er
 M om
 d ad
The y
u dd
  ke
 on e
 th is
 exc ited
 n ice
  E
 fe el
T om
Y es
 r un
 l ong
 fa st
 to ld
 s k
 a m
urp r
ou r
 in side
u ll
 s urpr
 m o
 pret ty
in y
in k
 s or
W h
 t ake
o g
 s l
 e ach
 g ave
 mu ch
n na
 g ra
le w
 ro ck
b b
 h ow
ar a
 st r
im al
 an imal
g ed
 th an
B ut
v en
et ter
 to w
  or
  C
a ck
 o ld
es s
 sor ry
r o
g e
is ed
ur t
 c a
 c le
 f ish
 wal ked
 cl o
 be ar
f t
 ha nd
ur n
 W e
 k ind
 H is
 t e
he re
 happ ened
 j ust
 fl ow
 f ood
 l ist
 did n
 animal s
 h ig
p l
 ne ar
 wa t
  ide
 t ry
c hed
 sk y
in e
 f i
v ing
r om
 u s
 ide a
 b etter
 A my
 b ug
 he ard
g ry
 it s
 t w
 l et
a se
p ec
at e
f f
 care ful
 sh are
  en
  if
Th ank
M om
 f ly
 st or
i al
 f lew
m ore
 any more
 T h
 sp ec
 spec ial
b y
i on
 lot s
 ne ver
 b y
l f
 c om
re am
 d an
 u nder
 b u
 f o
 w ind
 d on
 t al
 r a
 cle an
or t
r m
 g r
 lo ve
 e nd
 The n

 

op le
 e ven
 m ag
 h ard
 sh iny
udd en
 f ore
 o ver
 c ake
 b ook
 co l
 t urn
b er
 f am
 b ad
 sa fe
 a fter
 A nna
ad y
udden ly
 pe ople
 pr oud
 E very
 surpr ised
pec ted
L et
 hig h
 c u
 h urt
 c ome
im b
ard en
 do or
 g arden
 g round
 op ened
 pic ked
 l oud
 cl imb
 u ne
x pected
 une xpected
 be a
 c he
 g l
il d
A s
  im
 g ive
 wa y
 ne ed
' m
 than ked
 col or
 bl ue
 st ill
 e ver
 hug ged
 F rom
 c all
n g
 f ar
i p
 H er
 S ara
 W hen
N o
 of f
 p a
 mag ic
i z
ag e
um my
oug h
x t
  K
 jump ed
 sh ould
 fam ily
oo l
 k id
 p ar
 sm ile
he s
u ff
 pl ace
k ay
e m
c t
 wal k
 n ow
 I n
 gre at
 m a
  qu
 str ong
 st ay
 u nt
 st o
 fore st
an e
t ure
 b ra
itt y
  P
 fr og
 br o
 unt il
 bea ut
d y
 s qu
 st ick
 ne xt
 bo at
le ase
 happ ily
 list en
 kid s
i es
 t ra
i ful
 beaut iful
 a pp
t h
 help ed
 d ra
 show ed
b e
 clo s
a k
 im p
 stor y
un ny
o y
 wh ile
 tow n
re l
o on
p t
re ss
 pic ture
 s n
 u n
 be ing
or n
 every one
 re m
I t
ar y
re e
a nd
 ha t
 call ed
 m et
 sto pped
 a d
 r ain
 g ame
N ow
H e
C an
 an gry
uff y
 op en
 w o
 tr uck
 ke ep
 so ft
W hen
 c ry
 y ummy
 lo st
 b ed
 L et
 S ally
 wa rm
v ent
 bra ve
 m ouse
 W h
 at e
ck s
 K itty
 d e
 ho le
is hed
f ore
 do ll
s o
 could n
 wat ch
 le ave
 al so
dd ed
 f ell
d e
 gre en
 fa ce
 tw o
bb it
g an
is s
 flow ers
g er
Wh at
  R
 no ise
ir st
ow l
e e
 w here
 so on
se lf
 sl ide
 ra bbit
l uffy
 be fore
ir rel
 p us
m a
ir ed
 sa t
ill y
 he ar
 u se
â 
H i
 ke pt
â 
Th at
 squ irrel
le s
e ar
The n
 no dded
 st ore
 hand s
 c ook
L ook
 bird s
 ex pl
 go ing
 fun ny
 ha ving
d ay
ay be
u ch
 e y
 cat ch
ug ht
 C an
 F luffy
u it
 y ell
 th ink
le ep
a ble
 c ra
B en
 b re
 fi x
 f in
 t ired
 b unny
 us ed
 loo king
 b us
an ge
a ir
 wor k
 w r
 bl o
  our
 p ull
W e
t hing
 wa it
  Now
 k it
 th r
l ed
 s ound
 ha s
  G
 me an
 po nd
em ber
 be h
 sun ny
 j o
 other s
 as k
 fl o
c hen
 kit chen
 tal k
a z
 d if
or al
re w
 p ie
 J o
 re al
 f irst
 he ad
 t ri
 mom my
 ey es
ell o
 imp ort
H ello
 d r
 fa v
t in
at h
j oy
  z
 rem ember
 r ight
 flow er
 par ty
 co ld
 m ess
 D o
 v o
 sw e
i ous
 sa nd
  â
 c on
 r ace
 cu ri
im es
 import ant
 d uck
 m oral
 sh ared
 p ain
z y
ou nt
 J ack
  ice
 o kay
 ad vent
 wor ked
ll ow
A t
 en joy
 d ress
 br ight
 ma king
 curi ous
  own
d ed
st er
ec t
 t all
 d ir
 h op
re ed
 h id
h n
 fav or
  ri
 s leep
W ow
 favor ite
 th ing
 be gan
 d is
 m on
 ba g
 h ill
D on
 cl a
 dra w
 he re
c o
 y ard
 t ell
k en
 F in
 sh o
n ing
 wat ched
q ue
 fo llow
 mo ve
 be l
 c ut
 n ight
 ag reed
 p ick
 h un
ap er
ll y
 st op
 beh ind
 Th is
 surpr ise
i ed
 h ot
A fter
 ta ble
 gra ss
 wor ry
 d ark
 tre es
 vo ice
 wal king
c ed
fe re
 flo or
 far m
 li on
 to p
 dif fere
 p lease
 re st
 s ong
 but ter
 ta il
 swe et
M ax
 sh out
 color s
 re ad
 D ad
 l ady
 for g
is y
 r u
 leave s
 clos er
ig n
c ked
 car s
 turn ed
Wh y
ar ing
 w ood
 c ried
 ta st
 differe nt
 laug h
 d el
 pie ce
â 
er ed
 M r
 advent ure
 ro ll
 fi re
 do es
 c r
i ke
 hun gry
 ha ir
 S uddenly
 p aper
 feel ing
 yell ow
 f ull
b o
S ue
 to uch
A nna
 A s
S am
 w et
 friend ly
 pr in
 p er
a ched
 fr uit
i ent
 bro ken
 re ady
by e
pp y
 pr om
 Th at
 an other
 l ight
 pret end
 dan ce
 climb ed
w here
 list ened
at er
 Bob o
p e
s h
 run ning
 on ly
 s ing
 pl an
t ing
 g one
bb ed
 sw im
S uddenly
il a
nd ma
S ara
 J ane
 tra in
 clo se
a v
S he
 sm ell
S o
 am az
 ho ld
 blo cks
 Tim my
 re pl
 A ll
 butter f
 se es
 re ached
 wa ll
 p u
one y
r ed
 sl ow
 help ing
 d ri
 c ream
 c ool
 gl ad
 a nt
 l ess
 sw ing
 be en
a f
 good bye
 a c
 f ight
at her
M ia
 pus hed
 wo nder
a c
ic ed
 fa ir
 mu st
 h ide
 mom ent
 wind ow
  O
 s it
n in
 ball oon
 sn ow
 ch ild
 expl ore
 Every one
 a r
 w ished
 ba by
 d one
 wa g
 st e
 bu y
 st uck
 th ank
 m ight
ic y
 per f
 nam e
iz ed
 try ing
 b it
 com ing
 b ar
 qu ick
 f all
 app le
as h
 sc ary
 look s
 bu ild
 do ing
a isy
 d ream
 dir ty
 d in
 he ld
am es
 book s
 m ar
I n
 butterf ly
 le ft
in s
 shout ed
 c ount
 repl ied
o om
av y
 re ach
 t iny
ot t
 d ro
 wh y
 a ir
 br an
 la nd
ke y
 th ree
 pull ed
 sp l
 gr ow
 thr ough
 tre at
 br other
 w ise
 wood s
 s ure
' re
 ch air
 m at
 se en
 p ink
 cla pped
 pl ant
el y
  owl
 cu p
ie ld
 somet imes
 f ill
 cl oud
 sw am
e a
i x
out h
 j ob
 color ful
 remember ed
 big ger
 ne st
 m outh
p a
O kay
 less on
p h
ou p
 The re
ro om
 wa ved
udd y
 gra bbed
 stay ed
O h
ar t
Th is
 jo in
 cl ot
 clot hes
  ve
ow er
 A fter
 wa ited
 quick ly
c le
 w in
 wor d
t e
 bro ke
 ca nd
uck y
 g ames
 ca st
 b lew
 g ent
 Mom my
 enjoy ed
 not iced
J o
ri es
 s et
 pain t
 like s
 picture s
t on
 se a
 he avy
 mu s
 al one
 g if
 any thing
 sp ot
 m iss
 ho pped
at ion
 wor ld
 turn s
 y ear
d er
 b ott
 p at
 p ot
or m
a ught
 p en
l c
H er
 a rm
 b ike
 t ight
 every where
 w on
L ucy
 m ix
 tow er
 th rew
 him self
 follow ed
 B uddy
 r ide
m an
r s
le ss
 j u
 j e
B ob
am p
ap e
z e
 ke y
r ow
 s na
" .
 wh ite
ct or
 wr ong
 D aisy
 make s
g in
 Wh at
 bre ak
 bl ack
are nt
n er
D o
S pot
 de ep
th y
 mus ic
 po l
 del ic
ce ss
u ed
 forg ot
 be e
 p arent
 cast le
ve s
o lly
 e m
t a
i et
 we ar
 h it
is ter
ou n
 qu iet
 r ound
h i
an ce
 st u
 dan ced
 v is
 want s
ull y
 le af
 Jo hn
 mon ster
 n ap
an g
 b owl
o s
r ot
 b or
re n
 tal ked
itt en
b ble
 d ry
 fast er
 cook ies
 br ought
f ully
 le g
t s
ro ss
 m um
z z
 s ide
F rom
 s ign
 In side
 sm art
c y
 R e
 rock s
 some one
H is
 se c
 sh aring
 fo x
 we ll
 re s
 re l
 happ en
 but ton
 bran ch
 L ila
 re ally
 fin ished
n n
ard s
 din ner
 s ister
en ce
 fly ing
ed dy
on s
 wor ried
 e le
 T o
 con tin
 vis it
 M aybe
 be ach
  que
 sec ret
 e l
 Sara h
 k ing
Jo hn
g y
 to day
 perf ect
 ri ver
 every thing
 s illy
 Jo e
 dan ger
i pp
 child ren
 g u
 So on
 f ield
a st
 fill ed
 f ur
 el se
 c re
 smile s
 we lc
 A t
 w ish
 E m
Wh ile
 sa ng
 g i
 p udd
 eat ing
 real ized
 piece s
 prom ised
  i
 p ig
 f ree
 contin ued
 b ite
st e
 parent s
 care fully
itt ing
 e ar
 s u
at ed
J ust
 sp r
 j ar
M aybe
 c ow
A my
 bl ank
 dra g
ste ad
 or ange
 mu d
 cry ing
ck et
 blank et
 en ough
 roll ed
 s oup
 sa il
 p urp
im i
 y es
se s
 dr ink
 sn ake
 b oun
 p et
 cra b
 thr ow
 laug hing
 fair y
 word s
 amaz ing
 b ath
 com p
i ch
 purp le
  Z
 with out
i re
 bott le
or d
 B illy
 gif t
 gra ndma
F in
us ed
 s i
 m oney
k in
 pa st
f ort
 ma il
 G ra
 bar ked
 wag ged
ch ool
 mon key
i ver
 do ctor
un ch
 br own
 mo ved
is es
 ask s
 get ting
s u
 clos ed
in ed
 at t
 m orn
 welc ome
 cand y
 s chool
 morn ing
 own er
g g
 w he
 l on
 m other
 hig her
 s itting
 sm o
. â
! â
 danger ous
 lon ely
 li ving
 app les
 C h
us h
 sh op
 str ange
ve l
as ed
 ro ad
 Tom my
un a
 pa w
 sho es
  -
 st re
 tal king
al thy
 ca ught
o l
 e gg
m e
 pa ss
 l ake
 run s
 ba s
 b uck
 l etter
 w ings
 che e
f ish
 m ad
 f an
k et
 bas ket
 drag on
Mom my
s et
 st one
 think s
 st and
 delic ious
 c e
 no se
 pudd le
 to m
 M imi
 bel ie
 B l
 farm er
 sa me
 year s
 t eddy
 b at
 po in
is k
it ch
c hes
 m ine
 se ar
 co at
ig h
 day s
 f it
 star t
a pp
 gent le
 fin ally
 wh ist
 cr ay
ig g
 sc ream
 k ite
 p ill
ph ant
ar m
 v ill
 ch o
ell a
s w
 tast y
 p h
 b en
 tr ou
 she ll
 her self
 hop ed
 an sw
 w ore
 sw ings
s y
 bel ong
P lease
 pus h
 h or
 bus h
isk ers
 car rot
 ar ri
aught y
 te ach
b ow
ra ct
 n aughty
 ele phant
 dro pped
 sh ap
i er
 co ll
s c
 te ac
re s
 wo ke
 p ile
b all
 hid ing
 c our
is a
er ry
 to uc
 pu ppy
 m in
' ll
 see m
ll ie
 tw ins
am a
 l unch
 b ow
 sa ck
 br ing
 p ers
 cour se
 che ered
 shap es
 J en
 gre w
f used
 ro pe
 vill age
ir th
irth day
 ju ice
 rain bow
O K
a le
 sh ook
J ack
 sp oon
 ben ch
 stre et
 f ence
 cut e
 F red
i pped
 n ut
 chee se
 pr ob
a il
 touc hed
id ge
co l
 j oy
b r
 Wh iskers
 arri ved
 se ed
 teac her
 c orn
 wa r
G ood
 a ble
 be ll
 fore ver
 fe w
 car ry
 mo st
 pl ane
 Bl ue
 e as
le m
ll a
 sound s
 d es
 sp o
 prob lem
 b irthday
 p ower

  
 bug s
il k
 n um
c ing
 wonder ful
 ro b
 doll s
 bus y
at o
ir p
 p i
 w ra
 prom ise
 Th ank
 feel s
 Em ma
et er
 bre ad
 ne ck
Fin ally
 m ilk
 rob ot
 re c
 sh y
ount ain
 k iss
e b
 c ave
 ba nd
 hear t
ir t
 po cket
 help ful
 you ng
g ly
u b
 slow ly
 belie ve
 sh ake
ump y
e ared
 pat ient
 p op
ar p
 o b
 li ve
 stor m
 hold ing
 u gly
 tow ards
 up set
 in c
 t urt
ad ow
 co ver
 k itten
o st
 Re my
 sh arp
 stor ies
 dis app
 h oney
 B ella
o ve
re ad
 no ises
 c ir
 ball s
 sp ark
 gr ay
 d ist
og gy
 L e
 dir t
 l ate
 dri ver
 se at
 sna ck
 buck et
 me et
pp ing
s er
 amaz ed
 turt le
al m
 sp id
 treat s
 magic al
at or
u nt
 gl ow
 sh r
 see k
 z oom
 le m
 sand w
fort able
 tri p
 m ist
 spl as
 ha ng
 m ark
 j our
 fo ld
 m ach
 pu zz
 hor se
 or gan
 w ild
 prin cess
oo se
 cook ie
S ure
bo ard
 hug s
en s
 M ark
 ta king
un g
 whe el
 cl oth
 L isa
 s ug
il ing
 in stead
 str ing
 n et
 dro ve
 ru de
 hug e
 J im
 co in
 star s
 fight ing
 sp icy
 l ucky
B e
O f
 cra w
He y
 b one
 s ne
 d i
 Gra ndma
or s
u p
n ot
pp er
 for get
a ur
 sa l
 Fin ally
 can not
 whist le
 par t
 s ick
 p ath
ne y
 spid er
 w ide
 bu bble
L ila
c er
 fo ot
 snow man
 song s
 li fe
 pill ow
iz e
 J ust
 c ou
L ater
 s uc
 fix ed
 gi ant
l ing
op h
ri ll
 no d
 bo ss
 la st
 com es
b led
 kn o
an a
 jo ke
 mo on
 tast e
d en
 mach ine
 gr umpy
er t
 wa ve
 dri ve
 as h
 gra b
 s er
 pe ace
l ower
 dad dy
  On
 Le o
 s el
 she lf
 hid den
 in v
 s uddenly
 was n
 wr ite
 land ed
 con fused
 ch ange
 wor m
 s our
oo p
 ch ased
 fruit s
it y
 my ster
 b ark
 r ad
ul ar
 smo oth
 C ome
op e
 adventure s
 v al
 ste pped
 o ven
 take s
 miss ed
 sel fish
T o
 she ep
 mess y
 ac ross
a i
 ex p
  N
 l ater
ell y
if e
  ent
 stick s
 t ie
an o
 L una
 st ep
 b ought
m er
 d rew
 te a
pec t
irp y
e ver
bo x
 A nn
? â
 was h
 l ay
 p our
 bea k
o se
 j og
 gr ate
 duck s
 leg s
ug g
 f il
 B u
 em p
 hop e
 emp ty
 sl id
 fe ather
 sleep y
 dr um
am ed
ar s
et h
 p an
 z oo
 ph one
 grate ful
as k
 f ing
 lem on
 C at
 cle ver
 M olly
 smell y
n an
 spl ash
 J ill
 sa ve
 ch ick
 c alm
S t
 m ed
 watch ing
S oon
i ble
iz zy
iz z
 pl ate
  ign
 cloud s
 l ine
st ion
y ard
 face s
 a ct
 li ft
 th ough
 wo lf
 back yard
w el
 seem ed
 dog s
 spr ay
C ome
 pr ot
 who le
 m ot
e st
 fan cy
 Dad dy
 arm s
 puzz le
 he althy
 su pp
w ard
 fin ish
er ly
 al ong
ll o
 rock et
d ge
on t
 eas y
 trou ble
 je wel
 p ract
 sp e
 j elly
 Ch irpy
 im ag
 t id
 que stion
 f ake
 cray ons
 wonder ed
 m aybe
 sc ar
 sh ip
 not hing
one st
b ar
ig er
 p ool
 long er
 any one
 J erry
 sp in
 fr ont
 wor king
u ally
 expl ain
 me as
 give s
ir r
 p ack
 s uch
 B unny
 cre at
 boss y
 B e
 D oggy
 smell ed
 sa ved
 r ing
ra ss
 ne igh
bar rass
 h onest
and y
 a v
ar ge
 em barrass
 v an
 forg ive
 tid y
 we ak
ur se
 put s
un k
 k ick
 sh irt
 W ith
 m ind
 O llie
 neigh b
 plant s
 so l
 Mom o
 gent ly
 co zy
or row
m ing
 expl or
 mist ake
 y og
oom y
 poin ted
 l ad
 a f
 st ood
or k
 on to
 wait ing
 jump ing
 che er
s p
 prin ce
 lo ck
 c ross
 que en
 Wh y
 M ary
 p in
w e
 w ing
on es
 l arge
 love ly
er a
ul t
 s ur
A nd
 de er
 che w
 cou ch
 b al
 re t
aught er
 st ret
 The ir
 place s
 M y
p r
 lad der
oo f
 ret urn
ra id
 ant s
 d ish
 af raid
 clean ed
 tom orrow
 build ing
er y
 sandw ich
n ed
 pers on
S ally
 pretend ed
 boun ce
 w ip
 prot ect
 mat ch
 ri ch
m ent
u ce
 h um
 p izz
 g ather
 sear ch
 bor ing
om an
 S omet
 te eth
K itty
M y
 d aughter
 w oman
 scar f
 go es
 To gether
it ing
 la w
 swim ming
 fur ry
 st ra
 splas hed
 p ri
 love s
 tr ue
 scream ed
R e
 la zy
 g en
 answ er
 num ber
 e ag
 ash amed
 pizz a
 app eared
 fe ar
 near by
 in t
 power ful
a w
 fl ag
v ous
 cl own
ge st
 ch ase
e k
 wa nd
 mot or
l o
 T V
 suc cess
 cho col
 I f
 creat ive
 tr ust
 we aring
 no isy
 mat ter
 d ig
 he llo
 n er
 too l
 sa f
 B ird
ad o
 ner vous
el p
 te st
 sm iling
 so ld
ic ked
 cir cle
os aur
 m ap
 dr ank
 cla ss
 tri es
 chocol ate
a ss
u nd
ar l
 P lease
 imp ress
 kne e
 gen er
 din osaur
 pol ite
 m irr
 Bob by
 T iny
 balloon s
 go ld
 r are
St op
 car ried
 G o
ens ive
 sh adow
 mirr or
 D on
 ba ld
 g un
 exp ensive
if f
 myster ious
o ppy
in a
 p ump
 not e
 her o
 mar ch
 h ar
  icy
 res pect
 we ird
 sne e
 c ri
 g ate
 so ap
ra g
ut e
iss ors
 the se
 po or
 tow el
 wh ale
 fe et
 t ape
 d izzy
itt er
 gener ous
nd pa
 c ard
n ic
 p res
 Ben ny
 dis co
H elp
vent ually
c n
 le ad
 s que
 m ic
 embarrass ed
 jour ney
n k
n ess
 sug ar
m b
is p
sc ape
 bo ot
 t ent
 peace ful
 f at
 sc issors
 B ear
 tast ed
 yell ed
Tom my
 t ick
ob e
 m el
 br ush
 dan cing
 gl ue
 h ur
 cl ap
 r ough
 br idge
ot e
i an
 dec or
 clos et
 cr own
 st ir
u al
im p
 prin t
 Somet imes
ow ed
air s
 H ow
um e
 c ap
 l amp
 v ase
 sc are
le br
 rel ie
l ves
an y
 e ld
 te le
 ce lebr
 g igg
 wh isp
 lo g
 sc o
 bl ow
 pain ted
 D ucky
 p ay
er ries
t u
 w is
 b erries
 mix ed
 sp read
 would n
 c age
 b ake
get able
 m ountain
 ad m
 draw ing
 bec ome
 fam ous
 kno cked
 be an
 n orm
 ve getable
as p
 k icked
 coll ect
ust r
 sh ark
 inc red
 lo se
c r
 norm al
 wra p
 gr oup
 th ick
 th in
  3
 f ine
 gl ass
 ign or
 clo ck
 te am
 eld erly
 cle ar
i b
 corn er
 fr ustr
 might y
r obe
 c one
 incred ible
 blo ck
 B r
ig hed
D ad
 mom s
 bal ance
 so ck
 sp ace
 j am
rag ile
 fr ight
p ort
 organ ized
 bran ches
 ro ar
 sw ord
al ous
 M ama
 gu ess
 f ool
 se ll
 fe ed
 S ome
 wh ich
 h orn
 pres ent
 je alous
 y arn
on y
st ood
 f ragile
 b urn
 under stood
bb orn
 t er
 m is
 stu bborn
 frustr ated
W here
e x
bb y
 ho se
c ient
an ged
 sp ent
 sho e
 ta ught
 car t
 tw ist
 che st
 spo iled
 relie ved
 S t
 an cient
i que
 wa ke
 pr ay
 S p
 fi er
 fier ce
 egg s
y m
r ay
 ter ri
 pump kin
 com fortable
 or d
 fright ened
or ry
 b arn
 to ug
 un ique
 meas ure
 go at
 wag on
 un us
 bre ath
 fool ish
 use ful
 explor ing
d le
 stra w
 unus ual
 d ug
 cl ay
 disco ver
 tom ato
b in
 de ad
 find ing
 pol ice
 wr ote
 cl um
 P e
l ace
t i
 wa ves
 squ are
 hear s
 ca bin
 tell s
 neck lace
 d ull
 clum sy
 toug h
 bubble s
 no sy
 sear ched
To gether
 was hed
 un k
 bath room
 paw s
un n
 bo ard
n own
f ic
 as king
 cra zy
 thank ful
 sun f
 b itter
y al
 p ir
al k
 dif fic
ber ry
 ro se
c il
 sw an
 blo om
 unk nown
 ex am
 E lla
 cover ed
 diffic ult
 a dd
le t
 pen cil
 ha m
 fing er
 h oop
 j et
 w itch
 dr op
M e
  '
 chick en
 gl oomy
 lo yal
He re
 we althy
c om
o nd
al s
 cat s
 end ing
l ight
 g uit
x i
sh ine
 do ve
 join ed
an ut
 mo v
 terri ble
 your s
i ant
  U
 Re x
 sal ad
 And y
 nut s
nd e
 r at
 t iger
 pot ato
 m ask
se lves
 val ue
 ch anged
 T r
 mo ving
 exc iting
orm ous
 M any
 bo dy
 un lo
 mar ble
 z ip
 c her
 che ap
 guit ar
irst y
 know ing
 advent ur
 your self
 en ormous
 hair y
E very
 sho ot
or y
 Br own
 bor ed
 pe pper
 rem ind
 ac orn
 adventur ous
 sun shine
 small er
 st uff
 hat s
 sol ve
 Jim my
 co st
rill iant
 kn ife
 sna cks
g ust
l and
 nod s
 sh ore
 b rilliant
 th irsty
 delic ate
 fr own
 dis gust
b ers
a king
 st ri
 seed s
 count ed
 as leep
re en
 mail box
 d ough
 tri ck
n i
 neighb or
in ess
ung le
 he al
Wh o
l ive
 st age
id ent
 mark et
 cu be
 d ep
 st at
 j ungle
 sque e
mb re
p ill
 explain ed
at es
 u mbre
 disgust ing
J im
f ted
 jo lly
 la b
 fl ash
 fr idge
in al
p id
 cr ane
c orn
 s uit
il t
 perf orm
 r h
id dle
y ing
g u
 is land
 sunf lower
 t imes
 A l
 cat er
 cater pill
 rel ax
 sh iver
 f our
ig inal
 h arm
ic t
 Wh ile
 stu pid
 med ic
 In stead
 g oose
 c ro
ed ient
 W ill
 sto ve
I f
A re
M um
m ost
 g em
 bat ter
 s ighed
 vegetable s
 st ones
 com b
p es
 sh ine
H ow
 medic ine
 dep end
 r ug
 care less
 or iginal
 st amp
 g ar
 c ries
In side
 carrot s
 You r
 sc r
 success ful
 sa uce
 je ep
 pop corn
 me al
 ob edient
 al most
 m iddle
 mag n
 stu dy
 p re
 fear ful
 j ack
m et
ink y
S orry
 Sam my
 e scape
 caterpill ar
 ser ious
 pe anut
 bed room
 eag er
 get s
 par rot
 stat ue
 hel met
 pe bble
 f ountain
  No
 ra ven
 an g
 past a
 umbre lla
 comp et
 jack et
 belong ed
The re
 de st
 fil thy
 des ign
 bor row
 c am
er able
 house s
 pri ze
 h ay
 bra ce
 stand ing
 mis erable
 ra ced
o c
 ta ken
 for k
 cray on
 tri ang
i o
 impress ive
 ch oose
 f ig
 t ied
ia ble
 spot ted
 li fted
 sl ipped
our s
 t ank
 spr ing
 thought ful
 depend able
 to ast
 ste al
 gar age
en ny
ip e
 bu ilt
 mu sh
 mo le
 craw led
 sc ale
 boat s
 p ant
 ham mer
 bott om
l ph
 cheer ful
 us ing
 smo ke
 pick s
r n
 mo der
ber ries
 show s
 pi ano
 magn et
d ile
co dile
 hurt s
in ary
 cra ck
 a unt
 mel on
 wa ff
l a
 moder n
ag es
 do lph
unn el
c ream
 t unnel
 ar row
 rel iable
 ho pping
o in
 mush room
 j ug
Tim my
 squ ash
 g um
 s ink
 mov ie
 t ax
 fl ute
 be et
 le an
The ir
 pop ular
op ter
ic opter
 cry st
 on es
 s il
 compet it
 hel icopter
 need s
ip op
ll ipop
 cro codile
 li z
M olly
 trou bled
 pig e
 lo cked
 tri cks
 lo llipop
 play ful
 hum ble
 tax i
 kiss ed
 l ow
com fortable
am ond
 un comfortable
 r id
h ost
 p ress
m p
at ch
 ang el
 wa nder
ed y
c les
 to rn
 gra ce
 an x
 wra pped
 mu ff
 tw ig
 pant s
 help s
 di amond
 cam era
 disapp oin
at ter
ss ion
ot o
 anx ious
 g host
 te ars
 ru ined
i v
c ident
 Jen ny
il ty
in o
 qu ar
 E ven
 f is
op l
 bel t
er opl
 gu ilty
 b ull
 a eropl
 help less
 happ iness
a ff
 liz ard
 boy s
c ut
 ce re
 walk s
ce an
e xt
 pass ed
 me ant
 o cean
z ed
 en g
 fl uffy
 w ire
 n ail
 brace let
 de af
 stret ch
 cand le
 ca ct
 beet le
 m op
 harm less
 re g
ump et
 ord inary
 answ ered
 coll ar
 c op
 be es
 t ire
 sh ape
 quar rel
 rad io
 flash light
 cryst al
 hard er
 pour ed
 tr umpet
 eng ine
M ama
 pers ist
 ru b
 h unt
 to oth
 S n
he t
 cere al
 inv ited
 comp ut
 t ag
 off ice
 m elt
 sp ill
 ch arm
co a
 l it
 sco ot
 c omet
 triang le
ie f
 m ug
 yog urt
 sp end
u be
 com pa
 ac cident
 sh ade
ag het
aghet ti
 disappoin ted
ush ion
 li cked
 re p
 cact us
 pa le
 c ushion
 fig ure
 reg ular
 gi ving
 av oc
 she et
 whisp ered
ut h
ell ig
 cre ate
 rec ord
 bar ber
 int ellig
a ppy
 p ipe
 ro de
 r oof
J ane
 en v
 th read
it her
 lo ad
 li br
 gif ted
c col
 v i
 pract iced
 del ight
ccol i
 har sh
as ses
 p ow
 d ust
 Tr ue
 b icy
az z
 sp aghetti
 compa ssion
 sa iled
ur key
u bby
 for ward
 persist ent
 m itten
 co coa
 en vel
 question s
 pr o
 comput er
 c oo
 feather s
h ip
 spe ed
 gl ove
p i
g ing
Bob o
 ri ce
 shr imp
 des k
 st ream
 in se
 pige on
 charm ing
 ear s
 car p
 ra ft
 env ious
 kn ot
 t urkey
 strong er
om es
 co ins
 t ap
lc ano
we et
 tra p
 aeropl ane
 tr unk
 whe at
 box es
 ch ubby
 carp et
 rest less
 intellig ent
 t ube
 sp un
 dream s
 friends hip
ul if
ol in
 ha lf
 loo p
 craw l
 bro ccoli
 del iver
an ger
 v ide
 vo lcano
 J ake
 s le
 tra ck
 b ri
 ac ce
 ca ulif
y e
 v ine
 tick et
 th ief
ess ie
cy cle
 loud er
 inse ct
 num bers
 y aw
 hair cut
 sleep ing
t en
 m ill
 e ventually
 al ert
is ion
 exc ite
 att ract
 plan et
 To day
 un iver
ul u
is ted
 return ed
 dest ro
 grace ful
it al
 happen ing
p o
 O K
 Em ily
 dec ide
 learn ing
 ho sp
 sc reen
rew ork
 nice ly
 le op
 hosp ital
 caulif lower
 competit ive
 a p
 po em
 celebr ate
 c urt
 pe ach
 sold ier
 sa us
 par ade
at ient
 attract ive
 curt ain
 dolph in
 vi olin
 way s
G o
o i
et e
at s
 tra vel
 ro d
 ignor ant
 ba se
 wheel s
 y ach
ul b
 sc atter
 d eter
 compassion ate
 bar rel
 envel ope
 l ying
 fi rework
 sor t
z zy
 P ipp
 scoot er
 deter m
 r ag
 bicy cle
el ery
 th u
 need le
 F r
 ju dge
 leop ard
 b ulb
 yach t
ac he
 p ony
 cri cket
 or der
 h omes
ter n
 ad or
 tr uth
 h ook
d om
 ru bbed
 re f
ig ator
 bus hes
Sara h
 comp le
 un cle
 sp ell
 gr own
 coo ked
 ador able
 ch alk
 so ar
 p urse
 sk in
 them selves
 imp atient
 c elery
 tr ay
as ing
 shell s
 pen gu
 sn iff
 pr un
 wall s
 se al
 live ly
 all igator
 f le
 dist ant
 rad ish
 say ing
 spe ak
 motor cycle
o ar
 me at
e y
 s end
ill a
 for th
 count ing
 ent h
 boun ced
 ch ain
 clean ing
 st um
eb ra
 fil m
 sle pt
 p it
 sur f
 mar ry
us ia
 wall et
 enth usia
 met al
ur b
eb ook
 b in
 we ek
 not ebook
  ed
 sk ip
 wip ed
 ca se
ch air
 big gest
 imp ro
 avoc ado
 beh ave
 destro y
v ator
 band age
 laugh s
 ste ak
 pat tern
 ele vator
us ie
 Bu zz
 d ive
 sh ut
 sk ipped
 po st
 di ary
 ru bb
de st
j ect
g round
 z ebra
 bag s
 arm chair
ag ed
 dist urb
 o y
 am b
 po le
 jour n
 show ing
 gather ed
 cl ub
 n urse
 ear th
 str anger
 swe ater
 jelly fish
ul ance
 sc rew
 te mp
 P oppy
 mix er
G ive
 sk ull
 l ime
 b ump
n am
 amb ulance
 S h
 f ather
 journ al
ent ion
G ra
 loud ly
 unlo ck
it o
 fold er
 sh ield
 B et
 L ulu
 libr ary
 P eter
 button s
g l
 play ground
 truck s
 in k
 light s
 t ummy
 c ity
 decor ate
 st ation
e f
 con t
ir it
 fall s
qu ito
 P olly
B illy
c u
 f u
 F o
 Bird y
l ies
 her b
nam ent
 or nament
 mo dest
 gu ard
 mo s
 know s
 flo at
 c ord
 pol ish
ob y
 mos quito
 sal t
 att ic
 when ever
 ve st
ct op
 y et
 p le
 disapp eared
 straw berry
 on ce
 M um
 k ay
 brother s
 it ch
 pir ate
 foot ball
 spl it
ke le
kele ton
 h ipp
 a ut
 l ed
ctop us
ur ing
c ou
 dri ving
 ca ble
 supp ort
 call ing
a pped
 cup board
ak y
us hed
 wis hes
 tri pped
um b
 ro ot
 kay ak
st ic
 o ctopus
ob ile
 a dded
 ed ge
 m ild
 determ ined
?" .
 read ing
om obile
 co al
W ell
ut es
 st ack
 kind ness
 aut omobile
 enthusia stic
 thu nder
 snee ze
 car to
 yog a
ind e
 L ittle
 gr owl
ht ub
 fle a
 me adow
 draw er
 bat htub
oph one
 mean s
 ha ll
 go lf
 s keleton
 m ath
 ve il
 hunt er
 g or
 fl ame
 po ke
 vide o
 che ss
 tr oph
 cup s
 glow ing
 mat t
 oy ster
w ork
 pen ny
 sp ear
 it self
 draw ings
 hipp o
 rep air
 sw itch
p ar
gl asses
 sun glasses
 tele ph
 cost ume
 d ess
 z ipp
, â
 re pe
 muff in
 ar g
 past ry
 p un
 roll ing
 min utes
 pa cked
 make up
 Pe ople
 waff le
c ase
 hand le
 pe ar
 ma ze
ri c
 teleph one
 p ine
a it
 g ear
w i
 he dge
 matt ress
 pack age
a ving
 M iss
 sho cked
 troph y
in es
 pow der
 kn ight
 c ob
 miss ile
 man aged
 fr ame
 w ife
 o k
 se par
w eb
 st airs
 r ot
 mic r
ra ge
 c amp
ur ch
 mag az
 str ugg
 col our
 gra pes
t ime
 f ile
he ad
p er
 T ina
 basket ball
B ye
o ld
 res c
 cob web
Jim my
 T weet
S ee
 per m
 w ool
 micr ophone
es day
 ey e
 le ash
 g asp
ie w
ke ep
 P ete
 we ep
 ri bb
 bark ing
 saf ely
 D an
 te ar
at ure
 v iew
f fe
 slid es
 step s
ist ol
ffe e
 st aff
 sp irit
 t ask
 gigg led
 ho c
 hoc key
 ve nd
 th ose
 gor illa
J ill
 cool er
 R ose
w as
 ear ly
 mar ched
 min t
ro sc
 L ook
was her
 fl our
 hot el
h ic
 sail or
 dess ert
 ph oto
rosc ope
 ve hic
il ot
 of ten
 ch urch
 cook ing
 f ive
 saus age
ot ter
  ir
 t en
 tool s
 med al
 e ither
 fire man
ch or
 gra ndpa
  otter
 base ball
 sug gest
 pretend ing
 p istol
 dish washer
 organ ize
 re ver
 pe e
r d
 vend or
 s ight
 g rill
 temp le
 batter y
 open s
  ow
 real ised
 ir on
 la ser
 sand box
 o il
 pat ch
 h ours
 r ise
 wh ip
 rem ain
' d
ctor y
 G ive
 an chor
 tra sh
en se
 sh ort
 Bet ty
 lot ion
 fa ctory
se um
d b
 m ay
 war d
ug ged
 mess age
 val u
 ward robe
A l
 c ell
 mu seum
ap ers
 u r
 rh ino
 hang ing
uc et
ail able
 S unny
 Z oom
 h ive
 tow ers
keep er
 black board
 me m
 excite ment
 co ffee
 p ilot
re ady
F luffy
 nap kin
 pengu in
l oo
at ely
 che ck
 re ward
 qu it
 Pipp in
 can e
 pick ing
pl ace
  ig
 fa ucet
 Sn ow
 pass port
 stum bled
 dream ed
 R ob
 ig loo
 B essie
ar oo
ang aroo
 free z
in ation
 ju icy
 all owed
e g
pl ay
 hold s
 al ready
 av ailable
 set t
 bat he
 torn ado
im ney
 fing ers
ht ray
 hang er
 new sp
 s ize
 la und
 l end
 ch imney
 laund ry
 o ak
 en cou
 fis her
 k angaroo
 com pl
 m en
 Every where
 tell ing
E m
um ber
 no vel
bo dy
 m ummy
 p al
 mu le
 cher ries
 not ice
 pract ice
 spill ed
 re inde
 comple te
 enjoy ing
 mic roscope
le nd
amp oo
 su b
 fire place
 imag ine
ar ian
 dis play
 Z ip
 magaz ine
 hur ry
 cabin et
 shr ink
 as htray
W ait
 cow s
 Sp ike
Jo e
g en
 pal ace
 impro ve
 r ake
 reinde er
 fall ing
cer os
 sk irt
 M ar
ur ed
 discover ed
 star ed
 ro ared
 sil ver
 t ub
 tra il
I s
 min er
 g ain
c ome
 b ill
ict ion
a id
 f og
ac hes
v ision
 a x
st airs
ile t
 h ut
 happ ier
 tall er
iction ary
 o ats
 fisher man
 ob ject
 p or
 valu able
 sh ampoo
ion s
 hole s
 off ered
 boot s
 rhino ceros
 nam es
 to ilet
 climb ing
v ice
O w
 stret ched
 zipp er
 tele vision
 un p
l u
 listen ing
 s ym
 bath robe
 jewel ry
f a
 He re
 joke s
 pro v
 ca lend
 stop s
 ax e
 jump s
 fu el
 spark ly
 perf ume
 S usie
 ra z
 bu ry
bo l
M ummy
 press ed
 K im
ree k
 re ce
 T oby
 ne at
 c reek
 po pped
 op era
 calend ar
 sn ap
 att ach
 gasp ed
 sym bol
 R o
 t una
 p apers
 unp ack
 res ist
 d ictionary
 sub way
 letter s
 freez er
 cho se
z ag
 spo ke
 any way
 su per
 por ch
 help er
af fe
 bike s
 li e
ar ry
 pa nd
ie st
ic hes
 tight ly
 com fort
 sh aking
 book case
 s on
 raz or
aur ant
 sandw iches
 A re
 compl ain
ig zag
 we igh
 again st
 stick ers
 rest aurant
 newsp aper
 bl ouse
 vehic le
 dis ag
 n ature
 squirrel s
 belong s
 swam p
 butterf lies
 g ym
d el
 grow ing
 buck le
om ed
 stir red
x y
 must ache
 bill board
 be ep
 al arm
 light ning
 li p
 fe st
 hun g
ut or
 dist ance
 c ards
og n
 ag ree
L ittle
 te ase
 ex t
 rec ogn
 fest iv
 ob ser
 hat e
f ast
O uch
 does n
 music ian
 ad vice
 rubb er
 bee f
 ser ve
i k
asp oon
 sweet ie
 mo del
l ter
 cri b
 blue berries
 a pr
 so fa
 cir cles
 break fast
 t utor
 books he
 gir affe
st ri
 festiv al
 separ ate
as is
 she lter
 g as
 air port
 o live
 bookshe lf
 frog s
 te aspoon
 rever se
 j unk
 rid ing
 ple ased
 Mr s
 dra in
 wip e
 o asis
 so il
 a head
 resc ue
 le aving
um mer
 pain ter
 squee ze
 ch ance
 po ked
 kn ob
 T eddy
 pee ked
 l umber
 train s
 ra il
 kno ck
 ext ra
 sl ipp
 qu iz
 re fused
rm omet
 p age
in ked
 ru les
 happen s
 sound ed
 poin t
 win ter
 dan cer
 Gra ndpa
 bird c
 disapp ear
rmomet er
 Do lly
 was te
 we ather
 birdc age
 li c
 the ater
 re ef
 carry ing
D aisy
 inv ite
if orm
 go al
 o stri
 un iform
 sw ung
 tr ade
 cl iff
 g az
 law n
ol a
 lean ed
 P andy
ang u
 adm ire
i ence
 for t
 accident ally
 past el
bble s
 acce pt
 st om
 l angu
 tw ir
 s uff
 pand a
r iger
 b et
riger ator
 pe ek
 bl inked
re nder
 star ts
 ref rigerator
 any where
!" .
 imag ined
 pin ch
 dream ing
n ight
 rem ove
 show er
 L ee
 C o
 class room
 ce iling
 car ing
i um
 gra nd
 miss ing
 lic ense
 st able
a ced
 the rmometer
 monkey s
a ked
 war ned
 s ummer
 W here
 ab ove
 bri ck
ast ic
ec ted
 c udd
 problem s
am ber
 ch asing
 lab el
 apr on
urn it
urnit ure
 law y
 l id
ugg age
m ed
 respect ful
 f urniture
 frown ed
 zoom ed
 p ages
 pre vent
 b ent
 l uggage
 mistake s
 sun set
 ostri ch
is on
l ow
 suggest ed
 window s
 j ail
 w ine
 ribb on
 old er
 shout s
 gra pe
 w igg
uc ture
 str ucture
 spo il
e or
 fix ing
 ch amber
 lion s
g re
 del ay
 find s
 hand ed
 search ing
 un ite
D id
 f ought
 lawy er
 bright ly
 pa ir
 meet ing
 cho ice
 s ent
 surpr ises
m en
 in s
 E llie
 ar t
 fav our
eter in
eterin arian
ad ium
 st adium
 proud ly
 inc lu
ik i
 v eterinarian
C h
v et
 chair s
 sl ip
 p ed
 S pe
 sad ly
 B ow
 C arl
 pudd les
 b erry
 ran ch
ve al
 B oun
 arg ue
  V
 adm ired
 c ur
 favour ite
 C l
You r
 excited ly
 grab s
 in f
m end
 ste am
th ank
ce ed
 hum an
eor ge
s ity
 He l
 pus hing
 sa ving
 R ed
 re veal
om mend
all ey
 y ield
 repe at
 m all
ol og
 remind ed
 rec ommend
 suc ceed
 le ak
 har b
 sur render
 app l
 we ap
a ul
 put ting
 v alley
 miner al
 even ing
el come
 mat ches
 forg ave
ation s
 snee zed
 a w
 r ushed
 pu p
ec ause
 sp ade
 ap olog
M r
 pl ates
 dis cu
ro d
 harb or
 ign ore
 B ig
 count ry
 langu age
 Bu zzy
 pull s
 pl astic
 supp ly
 sniff ed
 J azz
 int rod
 repl ace
 sho vel
 B ill
 ra ise
 carto on
 N ext
 f re
 car ed
 so cks
 stri p
 door s
 myster y
 li ves
 stick er
 s udden
 U n
ar i
 kind s
er o
 slipp ery
 O w
 play er
 pan ic
ric ane
 hop ing
id ay
 sh one
her o
 discu ss
 M ike
 B inky
 super hero
 delight ed
 g ro
Y ay
ch an
 chick ens
 should er
 rain ed
 colour ful
 bre at
 Al ice
 cla w
le x
 Bu bbles
Y uck
 soft ly
 p ort
r ise
 ho l
Gra ndma
ic er
 hol iday
 bark s
as on
 inc re
 throw ing
  â
 plan es
M ary
 be nd
 Fred dy
 shake s
 inf ant
 end ed
 shiver ing
 kne el
 sun rise
 pus hes
 O live
 thank s
 fre sh
 tre m
 suff er
 poin ts
im ed
w ards
 P at
 t ip
 Spe edy
 free ze
 keep ing
 W ould
 gigg le
 co pper
 smell s
 de ar
 ent er
 prov ide
chan ic
c ast
 dis hes
 E nd
 appl au
 un h
co nd
N ext
 head s
 hur ricane
 cher ry
 th umb
 men u
 me owed
 ma ss
 bright er
in ce
 se cond
 sand cast
 me chanic
 w re
 spray ed
 let ting
 e vent
 weap on
 laug ht
  x
 laught er
 cla pping
 feel ings
W ill
ick y
 splas hing
em ent
 cast les
 O r
g es
 sc ore
 univer se
 n avy
 stick y
oph ie
 d em
 room s
 r ow
 fl ies
ig i
 D ave
 unh appy
 gre edy
 d are
 al ive
 break s
g r
 en er
 inv it
Re ady
 dem and
 trust ed
L isa
 some where
arl ie
 prun e
 wre ck
 m ention
 gro cer
  Y
 exam ine
 par ts
y ear
 eat en
A ll
er c
en ry
 sk ill
 Hel p
B uddy
 throw s
 jog ged
 star ting
que st
 r ush
 po ison
 pir ates
he art
 v ac
Em ma
 K iki
 s igh
 fl apped
 drop s
 ch irp
 sp ort
Q u
 R u
 spark led
 Z oomy
 gi ven
 stre ng
 ste el
 bump ed
 yaw ned
 stu d
 re quest
 sco ld
 my self
 streng th
 shr ugged
M ark
 coat s
 pun ish
 e qu
 sn ugg
 univer sity
 pa id
 John ny
 pig s
 scr atch
 to e
 ex erc
 tra cks
 up stairs
 pray ed
 cross ed
 squee zed
 impress ed
 fl ood
 boun cing
Al ice
 rabbit s
 bad ly
. .
 war n
 le ather
 cont ent
 ex pect
 cou rage
 new s
 t ide
 T ed
 min ute
 bear s
 claw s
 bu zz
 sweet heart
 S m
y th
at ing
 n ation
yth m
 vac ation
 his t
 he at
 straw berries
 obser ve
 explor ed
 sett le
 sandcast le
 yaw n
 hist ory
 L illy
 L ola
m are
 M ummy
 S que
i ally
S h
 belie ved
 hor ses
Dad dy
 H oppy
a by
 che cked
 M andy
 to ur
 net work
 chee k
 off er
 eas ily
 pl aced
s pec
 spot s
 snow ball
we en
 ener gy
 U nder
 imag ination
 blue berry
ott en
 bet ween
 B ee
spec ially
 G igi
iz es
 d aisy
 wa ving
ree ze
 v room
 so ak
 saf ari
 rh ythm
 mass age
 stom ach
 ba king
qu ake
 night mare
 ins isted
 blow ing
 ent ered
Be fore
 st air
 p alm
 beaut y
re at
 tw isted
 b other
 wr iting
 sc oop
 prun es
  ing
 bra in
ip ment
 po ppy
 hill s
n oon
 after noon
c c
 equ ipment
 e specially
he st
 s ir
 p ad
 S ee
 ing red
 call s
 ingred ient
 Fo x
 earth quake
 ignor ed
 Snow y
 burn ed
 no body
 st y
ap a
 se w
 t ug
is ty
xy gen
 hear ts
 le ar
 lear nt
 lemon ade
 incre ase
ill ie
J enny
 trem ble
k p
 mail man
 whist led
 S k
F red
 shop keeper
ff ic
 perm it
 y ucky
ang es
 move s
 introd uce
 lem ons
 cra sh
 bean s
 flo ated
c i
n esday
ed nesday
itten s
 w i
W elcome
 plan ned
  

 stri ke
 tra ffic
 inclu de
t ain
 sl ap
 ra cing
 L ucky
A nn
res ses
 wis dom
 p ur
 wag s
 Fin ny
la imed
app ing
 G eorge
 l uck
 follow ing
 pri ce
 m ama
 p itch
 bel ow
 E lly
 H ave
 we ight
 exc laimed
ck y
h ouse
 bu ried
 follow s
 com f
 recogn ize
 ingredient s
 f urt
m em
 cand les
M imi
 marble s
st r
ri age
und ay
 A lex
 ap art
 W ednesday
 growl ed
 S u
ore s
 teach ing
 hop es
 fold ed
 close ly
 Wh o
 Fin n
 op er
 he el
 S unday
 P aul
 Ow l
 z igzag
 pull ing
 d igg
 boun cy
 furt her
 chew ed
 digg ing
L e
W oof
W ith
 d resses
 im age
 shout ing
 grocer y
uc t
 tw isty
 peanut s
 puzz les
 D og
l ook
 scr at
 ch ores
 whisp er
 I s
 sp ike
 Fr oggy
 c ape
r g
 sna il
 acorn s
 worm s
h ood
 deep er
 ur ge
if i
 exp er
 When ever
 T illy
 Sque aky
 Gra ce
 plan ted
 att ention
ec ture
 exerc ise
 Dan ny
 cu b
 oper ation
 h on
 ag re
 qu ite
 s imp
Every one
 strugg le
 M ittens
dd y
 bl ood
 l ecture
 was hing
 hurt ing
 gif ts
 van ished
 dress ed
 invit ation
 sol ved
 li cks
 snugg led
 Sh aring
 mar riage
 quiet ly
g ie
 war ning
 j azz
 breat he
re ci
 elephant s
 s izes
 d ried
 fall en
 land scape
or ies
 A n
 neighb our
 m ice
u esday
 app reci
 S ophie
 Joe y
 â 
 eag erly
 sail ing
 Co co
 pa used
ip s
 count er
 G ood
 Boun ce
 P enny
 wor th
look ing
 o xygen
B ecause
 re lease
 sh ined
N ot
p ted
 re aches
 spr ink
 bal an
 Z ara
 be g
is ses
 o h
 k isses
 sty le
 bri cks
s ed
 gl o
 play s
 T uesday
 ide as
 w ob
 firework s
B ella
 con f
igg ly
uc ked
a b
 see ing
 fl ap
op s
 acce pted
 P ip
r ight
To day
 bl ink
m m
 R os
The se
 mu ddy
 mem ory
 mar ried
 tomato es
 b le
 ex it
 Ann ie
 wag ging
 fa sh
Re my
 Ch arlie
i ppy
 wander ed
un ately
ipp ing
 F l
 glo ves
 cap tain
 pillow s
 rece ive
 res p
 P inky
ra ged
 d uring
 Every thing
et ch
 we b
 pet als
 water ed
 E ventually
i ved
 man age
 pin ched
 br ings
 cake s
 van ish
 fash ion
 Blue y
 prin ter
r r
 destroy ed
d o
 all ow
n c
up s
 had n
 wor se
 F ifi
S urpr
 hit s
 b ur
x u
l vet
 ve lvet
 app ear
 disag ree
 catch ing
 scatter ed
 mem ories
 sor ts
 P apa
 her s
 scold ed
 sign s
 pe ars
 or anges
 b ones
 ran g
 sna pped
 sit s
 seat s
xt ure
u xu
 gaz ed
 ra ised
n ce
 ped al
 Mar ia
 z ipped
 p ies
 prin ts
 sh ot
 slid ing
 Go d
 fr o
 eas ier
ss ible
B l
 skill s
 climb s
 twir led
c cer
 blanket s
 forg otten
 ba ked
e ster
 applau d
Y um
ester day
 differe nce
or ted
 l uxu
 gold en
 T w
 k itty
is ing
 cut ting
 se ason
ag gie
 now here
 cr ow
 so ccer
 d ared
 bit es
 H enry
 H arry
an ny
 l ung
 celebr ated
 encou rage
ch oo
st ers
ch ie
 stra ight
 unlo cked
 sor ting
 coll ected
 ble ed
ap ed
 welc omed
 vis ited
 spoon s
 our s
 st itch
 jog ging
Surpr ise
med i
 em er
 Sp ark
medi ately
 is n
 to ng
 tra ve
 win ner
 s ince
 pret t
O k
M oral
 T ony
 att ached
 weep ing
 march ing
 luxu ry
 simp le
 E ach
 should n
 guess ed
 z ero
 cre ated
 stuff ed
 pet s
d r
 wa ist
 fam il
 ur ged
 sell ing
 bow ed
 float ing
 Sm ith
ct ion
 by e
 K ing
 king dom
 v ict
 olive s
 kick ing
 W iggly
 pun ished
nd i
 L iz
 B aby
 to es
 gr ant
 mus cles
 jewel s
 Ros ie
 bed s
s it
 mel ted
 pre p
Good bye
 sl ice
 collect ion
 to re
 meas ured
 cra s
omed ay
 tra pped
v a
 l ined
' ve
i ers
 ac ted
u d
fort unately
 encou raged
 S andy
 rece ived
 waff les
 Be fore
 W ally
 we st
 me ow
 pattern s
 br us
 mouth s
ent s
k ins
 b ang
 K ate
Me ow
 pe aches
 b reeze
ad ed
un e
te st
 prin ted
 sold iers
 s omeday
 potato es
 pup il
um es
 M illie
 drink s
 she d
 exper ience
 T una
 present s
 fire f
 Ru by
 sur round
 n one
os ed
 voice s
 gr in
e ep
 Un cle
 relax ed
c us
 vict ory
 paint s
 bre aking
 hur ried
iss ion
 tong ue
 rec or
 cost umes
 fl at
 S te
 mention ed
 ba k
 beg ged
 te asing
 whist ling
 f etch
 P r
 perm ission
 s ip
 disag reed
 pe arl
ake s
 str o
 The se
 e sc
 app ro
 sk ipping
 R a
 fis hing
 M ay
Le o
 hig hest
 p ra
 wat ches
 B o
 sor ted
ve st
sh ip
 to night
 op in
 let s
ic ing
  Qu
 perfect ly
 shadow s
 im mediately
 herb s
 warm th
 sp it
 remain ed
o e
 It s
w alk
Bob by
 sne ak
irr ing
H a
J en
 s ix
 lip s
 kneel ed
Bl ue
 con test
ut ter
 carto ons
 side walk
 col ours
 stamp s
 ag o
 C he
 T oto
 Fo llow
 e ast
 head ed
 B oo
" ,
 str ang
 lady b
 f ed
 supp osed
 root s
 li ck
 cr unch
 mix ing
 work s
o ved
 decor ations
 melt ing
 kn own
 G r
 emer gen
M andy
b oo
 rest ed
 A b
 l ines
 Su zy
 l ily
 J ul
 in str
 la id
 con es
 wigg le
et y
 set ting
 S low
s ing
 stud ied
 strang ers
 Ro cky
Re ally
 twig s
 sho ck
b ies
 their s
 br id
 girl s
!" ,
 scream s
 land s
 ord ered
 st irring
 moment s
 field s
 al right
 steal ing
And y
 D r
 r ul
 brave ly
av id
 B oth
 m ister
! '
 Cl ara
 scrat ched
 play time
 ri pped
 t ucked
 rest ing
 burn ing
 Ch icky
 brid ges
 off icer
is hes
p lease
Sam my
 in vest
B ird
 invest ig
 sett led
 mat ched
 a chie
 te xture
n v
z ing
H appy
 wait s
 turn ing
mb ling
 Sk y
P eter
or ed
 tre mbling
ist en
 nail s
at ie
 muff ins
 Some one
id s
 dec ision
 esc aped
 J ames
 pile s
 investig ate
os ity
 bro om
 ladyb ug
 so re
 Pe pper
B u
 appreci ate
 adm ir
 th reat
 ba bies
 sil ence
 sister s
 emergen cy
 are a
id es
 dad s
t her
 answ ers
 pu pp
 key s
 chew ing
 sl apped
 w iz
 import ance
 ser ved
B oo
 saf ety
iz ing
W ould
 H op
 spark le
 touch ing
 L ater
 so ared
ig ail
 s ings
 he n
all en
E lla
ant ly
Mom o
 D ino
 amaz ement
 ch allen
ink le
 he sit
an na
 reveal ed
 tw in
ache l
 it em
 d ire
 so aked
 wr it
 keep s
 food s
 rid es
 dinosaur s
 recor ded
 tick le
 h i
 Z igzag
 wiz ard
 v et
 trip s
 glow ed
 Fr og
 in ch
 be amed
 qu ack
 cur led
 ha ted
 w ink
h a
 sho pping
 eat s
E ventually
 B ug
 pra ised
 wood en
 mitten s
 study ing
 gu y
 brus hes
 space ship
 g ust
 craw ling
 Somet hing
C at
 rul er
 fl av
is hing
 down stairs
 shoot ing
 tast es
 n apping
 sprink les
 mark s
 cudd led
 d ot
he llo
pl ash
 f ut
 fut ure
 mon sters
 collect ing
 meas uring
 H appy
 wo nd
' .
 famil ies
 M o
 O ut
 F irst
 th rill
 o at
ir ts
 res ult
J ake
 appro ached
 Ra bbit
 crunch y
d ing
 rem em
U n
 bleed ing
 remem bers
 n icer
 be at
 sne aky
 disturb ed
 lead er
 H ope
 sc aring
h ind
 pe el
 fire men
O r
 neighbor hood
 St ar
 gre y
 N ot
 mot ion
 no on
 po ssible
Em ily
S omet
 apolog ized
 we ighed
 D id
 ticket s
 nap s
a ved
 loo se
 pr ide
 you th
 swim s
c ious
a cked
 str ings
a ct
 recogn ized
M mm
u es
p ed
 si ren
 po king
f ied
 H o
el vet
 tri cked
 wond ers
 gain ed
 want ing
 cras hed
 o be
 sees aw
 work er
unn ies
l s
 draw s
 scoop ed
 zoom ing
 opin ion
om ing
 yell ing
 prep ared
. '
 grin ned
 Slow ly
 a we
 poem s
 dog gy
 act ing
 Be ep
 happ iest
 che f
 sne aked
 resp ons
 e ff
 Al ways
a les
 L izzy
 own ed
 b unnies
 any time
C l
 str uck
 ped als
 kn elt
en a
O llie
 secret s
 p ause
 decor ated
 horn s
 agre ement
 S qu
id ed
T r
 fr ost
 tall est
w h
 obe y
g s
riend s
oy s
og o
 St op
H ave
i en
 decid es
  Once
 beh aved
 t ugged
 s ides
 w oof
 sl im
z en
 good night
 keep er
 spark ling
 chirp ed
re st
 pre cious
m other
l ier
 repe ated
 clap s
ind y
aff es
 snowball s
 R ay
 our selves
all ow
 gir affes
 cont ain
 balan cing
 kind ly
 spend ing
ay s
 writ es
pp ers
 L ike
g i
o h
om as
 pr op
 his sed
F irst
 fro zen
 frost ing
 eff ort
 buzz ing
v i
 strugg led
 Ste ve
 admir ing
 re le
ig gy
 sweet ies
 V elvet
 slim y
 br ushed
 bloom ed
S usie
 pol ished
ar th
 Z oe
an ted
 comf y
 stay ing
 b oo
 rubb ing
D ucky
 rock ing
 pocket s
c l
 thrill ed
 be side
 A unt
 M aggie
A h
 e ight
ur ry
is dom
 mach ines
 ear lier
 y esterday
 seem s
 r ust
 S pr
 K eep
 trave led
 fold ing
 ru in
f re
 bo om
 cra cked
it ies
 hug ging
 rad ishes
 St itch
 open ing
 lo ving
 cir cus
 surround ed
 curi osity
 R achel
 spray ing
 demand ed
am ie
 G reen
 rem oved
 gaz e
 hon k
 pebble s
 zoo keeper
 hard ly
 cat ches
ed ding
 stri pes
 pow ers
 load ed
 Pipp a
Somet imes
 splas hes
 pot s
 pet ted
 match ing
 D avid
Thank s
 to ss
 st are
 be lly
 J e
a ster
Y ummy
 what ever
 apolog ize
 ro cked
 comf orted
 B ree
 ribb ons
 J oy
 Bird ie
 strugg ling
 A m
er n
 ex pected
 des er
 ste ep
 prot ected
 neighb ors
 smile y
 chase s
D uring
 gr anted
 M at
lo e
 pur red
 di ving
 cr umb
 sad ness
Wh iskers
 organ izing
low ers
 eag le
E x
 hero es
 d ipped
 sun light
 li ed
 pastel s
 Fr ank
 saf er
 road s
 st ing
 scr u
 arg ued
 M illy
 go als
 W ater
 disco very
 Ab igail
 vill ag
 pe ered
 Boun cy
u se
 t im
 drag ons
 build ings
 bucket s
 part ies
 be ard
 w edding
Re x
 fl utter
 planet s
 an n
 Rob by
 pol ishing
h in
ir a
A n
 rele ased
 Ch r
d a
 crab s
 G ogo
 tail s
 W atch
 saus ages
 J u
 ar gu
 C ar
 cont ro
 bott les
 wigg led
 te ased
u ke
bb ing
 argu ing
 sl ed
 drag ged
 ro aring
 cle aring
 sh irts
 mov ies
 gather ing
 air pl
 w id
 M e
joy ed
 teac hes
 spid ers
 l imes
 D are
 over joyed
 act ually
 sigh s
 contin ue
 pad d
 cudd le
 so aring
 small est
 J ess
 dri ves
um ble
 spark les
 ri p
 sit u
 cub es
 tal ent
 challen ge
 O lly
 grand mother
 S plash
um m
 pour ing
 pretend s
 cut s
 quarrel ing
 pe ppers
 b ank
 shiver ed
 man e
s he
 dust y
le y
 wonder ing
 villag ers
 stretch ing
n joy
 week s
 where ver
 dark er
j am
T iny
s ses
  X
 r ings
 on wards
 un ited
 K atie
A choo
 be ad
 Every day
 Be ing
 prett iest
John ny
 ca ut
ea h
he e
 real ize
 comp any
 pengu ins
anna h
L una
F r
M ar
 bed time
 comple ted
 W isdom
 Le ave
 knight s
 Spr ing
 flag s
â .
 B ecause
 play room
 act ions
 Z ero
l in
 learn s
 got ten
 Pr in
 pat ience
ind a
d am
 shr ug
 kit es
 respons ible
 fe ars
 dest ination
 wire s
 rep ly
 wr ist
 d am
 pack ing
aw s
 mountain s
 fa ult
 applau ded
S p
 scru bbed
 cre pt
 A va
U h
 E arth
 sat is
 th ird
 ph ot
 pencil s
 w ins
j o
 stick ing
 bak er
 visit ing
 w ound
 use s
 pe as
 remind er
n ie
 contro l
h r
Gra ndpa
 jo king
as hed
 aw ake
 instr uct
 star ing
 heal ed
 P ut
 h itting
 F ish
 scream ing
uck ily
R ob
 F riends
ic orn
ic a
 helmet s
ent y
l er
 un icorn
se ek
 towel s
S illy
 L ou
 ch ips
 cre ation
 was ted
 Be hind
la ire
 mask s
 item s
 forg i
 firef ight
 out do
 lollipop s
W atch
 he av
 gun s
z es
 d ied
 H ippy
 se as
 gl itter
b ie
udd les
 arri ve
 were n
 sto le
 sc ales
 per ched
 ac com
 log s
 achie ve
d ie
 pract icing
 who se
St ay
 pump kins
 instruct ions
 sw oop
 batter ies
 cand ies
 agre es
 pro ject
 snake s
 chirp ing
Ben ny
 she lves
 protect ing
 par ked
 ex act
r u
 C ra
 patient ly
 act iv
F o
 vide os
 should ers
g o
 blow s
 prom ises
 d ent
us an
n ers
jam as
P ete
 exam ined
 airpl ane
D oggy
 ro ses
 accom pl
 task s
D ave
 Ho ot
P oppy
 B op
B unny
 bead s
 bowl s
 crumb s
 M oo
 listen s
 L ove
ue st
 Cat ty
 Brown ie
 O l
 dolph ins
 c ough
 b unch
 g uest
c akes
 request ed
 rem ote
 impro ved
ant a
 reach ing
 bra nd
 J an
 al ien
 B ye
 S un
 cop y
 cheer ing
 phot os
ir m
 Jul ie
 Che w
 stum ble
B ad
. ..
 Bl ink
T ime
 can s
ay la
 C uddles
on a
 ben e
 tim er
 B y
 repl aced
ath y
 work ers
il o
 st ern
 E njoy
 ne ither
M ike
in t
 pass ing
 mis ses
 curtain s
 conf l
Ch irpy
 rainbow s
 rub s
G eorge
uct antly
 roll s
 pat ted
 pa jamas
 outdo ors
in ated
es ome
 fa sc
d ies
 Squ irrel
L ola
R un
 pupp et
 Prin cess
 close s
 bene ath
 la p
 drum s
 t une
 B eth
 M ouse
 fill ing
M iss
ang led
 ref use
 S orry
 swe at
 fa ced
 ro bb
 se ven
 balan ced
 resc ued
ne ath
 qu acked
 A bby
P aul
ist le
 aw esome
  1
 miss ion
 How ever
 guy s
 confl ict
 caut ious
 v ent
 obser ved
 c ause
 Th omas
 past ries
   
 O ur
 exact ly
 doctor s
 ru le
 bec oming
 police man
 m es
 rocket s
y ou
  Yes
 D ot
 fair ies
te rest
l ay
 p out
u ly
 bloom ing
 tra ctor
 in terest
 far ther
 S ad
O ops
G reat
 remember ing
 inclu ded
av i
 cur ly
Z oom
F ine
 team work
z ie
 fasc inated
 wob bled
 sl am
l i
 tr uly
 help ers
 sight s
 pad dle
 f irm
H enry
 J illy
ac ob
 ca used
 pray er
 sp ong
 record ing
ke lly
 tr aded
 star fish
 supp lies
 th ro
 poin ty
 situ ation
g ers
 neighbour hood
 every day
 ornament s
 A lly
a is
 val ued
 add ing
S ome
 rel uctantly
 dot s
 stay s
 table s
 prett ier
 ba re
 des ert
 snow men
 ste ady
 miner als
ara way
 th orn
o dy
 gl asses
 f araway
a h
 G et
 Fo xy
t he
 swoop ed
 W elcome
 Tw o
 S ure
 un f
 fork s
 us ually
 us ual
P olly
 d ar
 J amie
 win ked
 snee zing
 sol ut
 load ing
 spong e
 Qu ick
 insect s
s m
 pan s
D og
 so bbed
 S anta
J ames
 growl ing
ar ter
 thro at
 Ch loe
 no ses
 Jo sh
 pur r
 D izzy
 scar ves
 conf ident
 your selves
 W ant
ag ull
 home work
 superhero es
 St ay
Jo ey
 sm arter
 wind y
 libr arian
T ina
 K ids
 gem s
D ays
or a
 under neath
u i
 kick s
 know led
 itch y
 knowled ge
 jacket s
 S kelly
 F or
 surf ace
 unt ie
bb led
id o
b l
 com m
 D uck
 prince sses
.. ."
Th ose
H old
Y eah
 square s
s a
 H enny
 warn ings
 gigg ling
 read s
i ar
O ur
 ch oo
 young er
uc ed
 clown s
 M ix
T oby
 ro pes
 bit ing
 crow d
bb ie
 Un fortunately
p ite
D anny
Tr ue
 se agull
 padd led
 wear s
 deliver ed
 twir l
 buzz ed
 complain ed
 b umpy
r t
 st em
 P o
E w
 pig gy
M rs
 An ne
 dire ction
 di ved
R oar
ou ch
 t angled
 start led
ul ts
s on
 lean ing
 A nt
 J ones
 bad ge
Gra ce
 de al
th ough
c ers
Ann ie
 v owed
 nap kins
an es
 tick led
 r isk
 p ec
 cover s
v in
 yell s
Sh h
 satis fied
k l
 kno cks
t uce
cu se
 c ous
 arrow s
M aggie
ea king
 Wh istle
 wip es
 sp eaking
 let tuce
 guess ing
Un fortunately
 ri pe
 S usan
 hid es
 choice s
 Qu ack
 Do do
 Ro ver
 sign ed
 slow er
 seek er
Bu zz
 introd uced
 fa b
 sing er
 creat ing
r rr
 fro ze
 c ent
ugg les
 jo ked
 sque al
 to aster
 explore rs
f it
 av o
ang ing
S ophie
 pray ing
 wr itten
 discover ing
 prov ided
 D ara
 ref le
 L ion
Ex cuse
 mushroom s
 Je ff
 P aws
 pay ing
 kne es
 hid er
 wander ing
 As h
as er
 imag es
Ch arlie
 st ung
 W ink
 magnet s
 bare ly
 beh aving
 tip to
?" ,
 mar ked
n o
br ush
 rest ored
 lead ing
 D ee
ll ed
 ch uck
ad os
 n ine
 gre et
T eddy
 gear s
 bra very
 Sn uggles
 competit ion
 out fit
am b
ol ine
 wis hing
 prop erly
 vent ured
a a
 mus cle
 dance s
 ch at
st y
qu ence
 sal ty
 pen s
  er
 Bet sy
 ran ger
 ple as
 Z iggy
t le
k y
 deser ve
 how ever
 matter s
 dark ness
 F u
 rain y
 cobweb s
 bur st
 chef s
 con se
 block ing
 conse quence
ust ed
it ely
 sc ur
 v ines
b ly
 fab ric
 ent ire
 base ment
 perform ed
 le ast
C o
 Bug gy
 scrat ches
 ma ster
 heav ier
 C laire
 min ts
 twir ling
 avoc ados
How ever
 L inda
 scur ried
 lo sing
 sunf lowers
 Jen na
R o
 rain co
f l
 sword s
 cl ick
ag ic
 L aser
 sil ent
 job s
T weet
 necklace s
 fl ames
 L uke
 relie f
 Gr umpy
 sn at
 sew ed
 rot ting
L isten
Fo llow
 trick y
J erry
 light er
pa cked
oph ia
 bow s
 Sk ip
P e
 ex ha
 solut ion
 consequence s
A lex
 L ena
 tire s
um bled
l en
Be ep
 un packed
A b
 S c
r ance
 race s
 bump s
ink led
 wrap s
 p ins
 st ain
ais ies
 w ow
 decor ating
 ba cked
c her
 dent ist
 need les
 cautious ly
S n
 lift ing
izz ie
 accompl ish
 triang les
 d aisies
ep t
 hesit ated
 ann oy
 Th ose
 growl s
 crack ers
 stom ped
 gra bbing
 c ott
 fig ured
 bo dies
 m ater
  
 
 buy ing
 T ree
 mater ial
 R olly
 F ido
 A dam
 swan s
 t ies
 g ri
 grow s
 sweet s
 Good bye
 own ers
 flav or
 cheek s
 C athy
B ig
 suffer ing
 J essie
v room
 fa ct
 group s
 fore head
 lung s
H arry
 interest ed
 comp let
 bak ery
 M ilo
R u
 f reed
L illy
l ar
it ches
 Not hing
 chuck led
T w
b ell
F or
 sw ept
? '
 thu d
 exha usted
 ta pped
 re pa
 ne ct
ro sty
 nect ar
 fe ast
t t
 dar ling
W hee
ind r
 M ad
 wor ries
 tunnel s
 fu zzy
 repa ired
 re ason
 Tr ust
 Co pper
 B all
 activ ities
le ts
 pec ked
 H annah
 n i
 ent rance
 T ry
 ra indr
 me als
 L isten
 complet ely
 ma iled
 nest s
 wait er
 cudd ly
 s ense
Q ue
 N ana
ct ions
 color ed
ark y
 le ap
st ep
b and
 pl enty
 pee king
 slam med
 C ara
 play ers
 d en
 mon th
 bu dge
 B irthday
 sc ra
 forget s
r ink
ab el
 Ol iver
 hand ful
o ssible
 gen ie
 Chr ist
 st ool
igg ie
 talk s
 P up
 Su zie
 passport s
 feed ing
 film s
 bath s
 imp ossible
 wob ble
 determ ination
M ay
bo at
 design ed
 Mat t
 bu ses
 o pp
le phant
Que en
 suit case
 bar s
 M on
 count s
and a
 sto len
 spread ing
 spike s
 Sn ap
 wip ing
 ste er
 l amb
 R ain
 hon ked
et ty
n ies
bl ings
 separ ated
h o
 si blings
 hop s
le e
 fe ver
 ch op
 sew ing
 m er
 fire s
 Tw inkle
 tw inkle
 cow b
n s
 t y
 camp ing
 M ira
im mer
 l ower
 ch anging
y es
ret ch
 beh avi
 D e
 Bl oom
m as
 li qu
 celebr ation
 squeal ed
 doll house
S unny
 back ward
 ag e
 snat ched
 c ash
 tw ice
 s way
it ched
 celebr ating
we ed
ad ing
 Pe anut
 ac he
 k ings
ri ous
 shop s
 kitten s
c ope
R ose
 Jess ica
 J acob
 G ina
au ra
 h us
b ut
 touc hes
air y
 pan cakes
 avo id
 sp at
 F rosty
h og
 N ina
ll en
 path s
 H old
ive s
 r otten
 calm ed
S andy
 sea weed
 dro pping
 M el
ri ver
ile s
P ipp
 twist ing
 stro ked
 unt ied
 play house
M illie
 stud ents
 pupp ies
 So f
 a str
 screw s
 some body
ig ning
 liqu id
ona ut
am my
 wake s
 squ ish
 W oof
 brace lets
 astr onaut
are n
 thr own
k er
 loop s
 O ther
L uckily
 wra pping
 pl ain
 tr amp
 plan ning
p en
 sk unk
 a imed
 pen nies
 sh oo
 lift s
 dan cers
 spark s
 firef ly
D an
 po ster
y an
end y
 c ust
 Christ mas
 reward ed
 object s
 ins ist
 dire ctions
us ing
ing o
 refle ction
 hus band
T ake
â 
 cl ues
u ppy
 lead s
r ig
on ny
 incre ased
 blo cked
 r ising
 do d
 cous in
 Y esterday
 With out
 forget ting
rig ued
 cust om
K ate
s ure
 tramp oline
 store keeper
 pout ed
 zebra s
y ond
 hedge hog
 a ff
 borrow ed
 Ro llie
 E l
 snow fl
 country side
J ump
 mes mer
 J ay
 vehic les
 instr um
 â 
 K ayla
 U p
d in
 frown ing
 F lo
P at
 mark er
 pres ses
 be yond
  Queen
 dam age
 On ly
ie ce
i very
 far t
 T ara
 B iggie
 heal th
 whisp ers
 swims uit
 slip s
 M ic
c a
 Jul ia
arm er
 warm er
 tipto ed
 fl apping
itt ed
Z ip
 lay ing
 Rob o
ad es
 y elp
 rain s
 gl ued
 every body
 F ire
 cre ations
 hear ing
 sw ir
 cold er
iver sity
o ke
 shap ed
 E lephant
iv ity
 street s
 fin s
a el
 rust y
 cushion s
O ut
r on
 fart hest
 creat ivity
 Mike y
 sa le
U nder
Al ways
an s
 strong est
i bbit
 fit s
 Spark y
 bell s
 doll ars
 L arry
ee se
 e arn
ang le
 lend ing
 M oon
 Ch irp
i am
 cash ier
M illy
 con n
 sniff s
 sa nk
 rainco at
 R ich
 trem bled
 sto pping
it i
 sour ce
im on
 Miss y
inde ed
 wob bly
  indeed
ter s
 guest s
 sing le
 we e
 spell s
 recommend ed
 accomplish ment
 bel ts
 surpr ising
 end s
 hope ful
nd s
 seas ons
 T ake
 Snow man
 E ls
 plan s
ich ael
 supp orted
st ick
ill ed
 suff ered
 art ist
 perform ance
 encou rag
N ina
 slow ed
e et
 g ross
 flav ors
id ing
ch o
 sp ins
B ear
 label s
 raindr ops
 del ivery
cc oon
Qu ack
 ra ccoon
 forgi ving
u de
ob ody
ara c
 pour s
 van illa
 turt les
 stand s
B ill
il ity
 W oo
u ess
 rec ipe
 be am
 t ying
 g eese
 will ing
 draw n
V room
 we pt
 B ones
 ch arac
 pop s
 corn ers
 S ophia
el ia
 que ens
 sail boat
 gri p
 d ie
 driver s
it ude
 hall way
s i
 second s
 Fu zzy
M ine
 prep aring
 m oo
 wid ened
 ad ult
 robb er
 Sp irit
 c oop
 talent ed
 P am
 Be aky
ll ing
 I zzy
umm ies
 sail ors
 so fter
 as ide
 water ing
 send ing
 knot s
 un sure
 t ipped
L ulu
 tree house
 hor iz
 L izzie
 not es
 e cho
ig ers
 achie ved
 sque ak
 horiz on
 deliver ing
Cl ara
 pleas ure
 hot ter
 St ella
 pupil s
 bur row
 angel s
 curious ly
E llie
 y um
 J une
 tw eet
 symbol s
 St retch
w k
 pass en
 Ru dy
 C indy
 t ummies
 t iss
 pige ons
 figure s
 d et
o ey
 r umble
 band ages
 c oup
 Do ctor
 robot s
 S w
al ph
 toss ed
 h our
 back wards
ed s
 ro ars
d river
B aby
 mer ma
u zz
 r ather
at ur
Mar ia
c ited
 P lay
 Cra b
ight ing
Do lly
 grocer ies
 zipp ing
P ut
 un w
V ery
 am ong
  icing
 bl own
!â .
 after wards
 screw driver
us hing
 sp ed
 pr ove
 g lee
 T iti
 T ia
 d ip
 over come
Ru by
Qu ick
 surf board
 shovel s
 slice s
 To ot
S u
 m erry
 m ate
 T urt
 A bbie
 head ing
 disturb ing
 sw all
 rever sed
 firefight ers
J ul
 swall owed
 ch ip
 sc ored
 fl ipped
 Rob ert
 J ump
 squee zing
ust y
Fr ank
at y
 wa king
 int rigued
S ad
L ike
 ma ker
 cent er
M oo
 B arky
B etty
 p uff
 ha wk
 A ng
 encourag ing
 a ud
ipp er
aw n
os en
on ies
 ch osen
 F armer
b ird
 coup le
 design s
 slipp ing
 squish y
 Em my
 E x
 garden er
 river s
S te
 resp ond
 mark ers
ile y
 t igers
 jar s
 frown s
 flutter ed
 Sad ly
 K it
R ibbit
 firefight er
 R yan
 suit s
 sec ure
 sprink led
 cream y
as hes
 shark s
 ignor ing
 br u
 gigg les
 tiss ue
 tight er
C ar
 firm ly
oun ce
 L aura
f ly
 sh own
 famil iar
 thorn s
Sp ike
 m i
 draw ers
 Z ee
r ing
 exp ress
 de f
 d aring
 cross ing
 aud ience
 perform ing
 colour ed
 cloud y
ch ild
 a is
 N ick
ic s
G et
 mi xture
 t il
 grace fully
 S l
 haircut s
 yield ed
 p onies
 sh in
 crown s
 bit s
 to dd
 S leep
g h
 nervous ly
 hang ers
 W o
 P atch
pec ting
Z oomy
 pay s
  2
 pe ck
 Ro ck
 stro ke
 e v
ment s
f all
B ang
 res pected
 n apped
 mind ed
dd ie
B essie
B oys
 test ed
p arent
 Chr is
K im
 Un iversity
 N ear
 bee h
 Turt le
on i
 surf ing
 neighb ours
 sh ady
ion a
arl ings
 magic ian
 enthusia sm
 d arlings
 wis ely
 st itches
 sail s
D ear
 wee ke
 thought s
Fred dy
 Tweet ie
 remind s
or ing
 temp er
th a
ant ha
 surround ings
 spit s
 fle as
 team s
 lesson s
 fill s
 fl ip
 Al ong
 paint brush
 mel ons
 merma id
K atie
ll e
 grand child
 hoop s
 expl o
 el bow
 sport s
G uess
 li es
 F ighting
 pan icked
a e
m i
ert ain
 clean er
 am ount
c used
 long est
 scoot ers
 l ent
it a
immer ing
 bel oved
b ra
Pipp in
 beeh ive
Al right
og a
 s ill
 oy sters
 grand parent
 forgi ven
 magaz ines
 ar r
 W ise
umb ling
 e lf
 repeat ing
 discuss ed
 sweet est
 Thank s
K eep
 wa dd
 May a
 la ce
 Gr anny
ab ly
 nightmare s
 bu bb
 tub es
 W illy
 spoon ful
 n ood
 bat hing
 Z oey
 swe ep
 man ners
on na
c row
Un cle
 spr ang
 n ur
 b ully
 H olly
 gu ide
 Y et
 c rew
an cy
J azz
 breat hed
wh ile
step s
ild a
ent ly
 B ally
 bulb s
 ne are
 grass y
 wigg ly
 test ing
 sp ies
 c oug
 sol ving
 sheet s
 R oo
co ver
ast y
 weeke nd
 foot steps
nt il
After wards
 speed ing
 fo cused
oun ced
ce pt
? !"
 mesmer ized
 cam el
 bra ver
 hesit ant
 Spark le
 lick ing
 r ushing
 N e
 W ell
 P uppy
 pol ar
 greet ed
 Mar tha
es pite
- -
Wh ich
K iki
 wor n
 material s
 ch anges
 N obody
und red
 stor ed
 bicy cles
 an ger
Le ave
 peace fully
 ship s
 sp ice
 terri fied
 n uzz
 g onna
 Sh ow
 pol itely
 spill s
 scare crow
Sn ow
 kn ives
 ev il
 Mix y
 A na
pp ies
 bury ing
 heal ing
 are n
 don key
 aeropl anes
 R az
f reeze
E ven
 se als
 scatter ing
 m iles
 Chew y
am boo
 d ump
 worry ing
z oom
or re
be ep
D avid
 le ver
 L enny
e en
 puzz led
B ee
 st acked
in ts
 K ip
P enny
 N ice
st antly
 lo ses
dd ing
 trave lled
 basket s
 O kay
 gaz ing
 bl ast
ip es
 T ess
H urry
 temper ature
 tast ing
 re ass
 dri pping
 cl ue
 belie ving
er m
 so aking
 rat s
 1 0
 be gin
 sand y
 Is n
orre ct
 S imon
an while
 Ab i
g gy
B inky
 punish ment
 b anged
re y
 human s
 cras hing
 for ce
 h undred
 g est
c ount
 L ia
it ion
 swim mer
 Che ss
is c
 snowfl akes
 relax ing
 res isted
 beep ed
 F airy
f orm
 quarrel ed
el ie
 r amp
 W endy
 jo ins
 P h
year s
 dress ing
 delay ed
 todd ler
 L uckily
 fl ight
 cover ing
or ter
Tw o
O pen
B y
 ben ches
 tow ard
 scra ped
 purp ose
 fo cus
 Ju dy
B ow
 c orrect
' ."
 lip stick
 b amboo
 S e
h ou
 tw inkled
 pot ion
 perm itted
 month s
 C ow
 langu ages
S pe
 ord ers
 freed om
T ony
 risk s
 po ppies
 nood les
 T e
 res cu
 f aded
sh m
 wound s
shm allow
K ids
 Jo jo
 cream s
 bird house
D e
 cell s
 annoy ed
 Her b
op es
 sniff ing
 che ers
 ad ults
Bird y
 unw ra
ec ca
Bu zzy
 p uck
 opin ions
 flo ats
a bby
In stead
 pe a
 fl own
 snee zes
 sc en
 hands ome
 no dding
ell e
 smell ing
 bur nt
  5
 dri fted
id er
 with in
 sc ient
 he ight
 dam aged
 bother ing
 te aring
 sl ither
 ple aded
 instrum ents
 e ase
 co c
 W in
 M int
 Al i
B ack
 scient ist
 Mar ie
M ira
Good night
 p ound
 sell er
 hand ing
 g erm
 S ay
 was ting
 file s
 res ults
 dream t
 M abel
 explain s
 destro ying
 brus hing
ous y
ge stion
 his s
 charac ters
 Raz or
C arl
 c ertain
 sug gestion
P andy
Be hind
 sweat y
 H ug
un ched
 bus iness
 Rob bie
bb a
 tal ents
 on ward
gin es
T ry
 en gines
 brave st
 C r
 stern ly
 P en
 Jan ie
 post man
 mosquito es
 mind s
c ake
 t uck
 scare s
u rious
 stom p
 apolog ised
v al
u el
 man ag
 sn uck
 b itten
atter ed
 til ted
 sw itched
 remind ing
 decision s
ri er
 sing ers
 des per
 behavi or
 Po or
 Ju dge
he w
 sque aked
 peel ed
ic ip
lo ck
 Every body
 y umm
 pur rs
 B ra
 treat ed
 sm ashed
 rust ling
 display ed
 U ntil
as hing
 neat ly
 mate y
 plant ing
 B ess
 mar shmallow
in ny
 yelp ed
 s y
 grandparent s
 cra cks
 coop er
 bell ies
 sh ines
 sc amp
 N avy
 fa iled
 color ing
 h oo
pr ints
 Y oga
 zoom s
 M ake
r up
 n asty
 breat hing
 comb ed
 pand as
 des pite
 add ress
l ine
ig hing
 water fall
uff in
 L oop
 Ang el
T illy
 wid er
 robb ers
P lay
Ab igail
 sweat ers
 echo ed
 door way
 To dd
F l
 ed ges
 Sh adow
A unt
 g ap
 dis obe
 Bl inky
w ise
L iz
 M ichael
 M eg
 t ar
 Fl ick
os cope
or king
W ake
 tap ed
 magn if
t r
f ather
 scold s
 flap s
 act ion
 in j
 crawl s
 M indy
R os
 sw ap
 go bbled
 back s
 G ary
 war ri
 Fish y
 E ddie
 st eth
 se ver
S low
 shin ier
 prob ably
 newsp apers
 sever al
 o cc
u nder
L ena
 en count
 ser ving
 quiet er
 pl ucked
 conn ected
 Sh are
  ouch
ig ger
T ed
A dam
 gest ure
e vin
T oo
 stud ent
 pl ot
 door bell
 squ aw
 care s
f ire
 rescu ing
 grand son
 u na
 sp y
 simp ly
 row s
 g oo
 whist les
m ies
v ant
i el
Sh rink
M agic
 snap s
 sh orter
 astronaut s
A m
 unpack ing
 cott age
 Tim e
 sw o
 accident s
ib i
 swo llen
 m ood
 N ut
Ste ve
 Z ippy
 R on
 M ousy
an ie
Z ara
 bother ed
H annah
 steth oscope
ver se
f ound
 trust ing
 ca using
to ck
M at
M ad
 leap t
 dress er
 s ou
 prop er
 pill s
ret ty
 in sp
O live
 run ner
 pray ers
 D ina
ain t
 joy ful
Th omas
 lo cks
 Pr ince
ul p
J amie
 goat s
 bea ver
wh at
 tar get
m ates
 u nd
 W ait
 K aren
 de ars
 B ang
art led
ad a
R ed
 wadd led
 m unch
 fl ips
 T ri
 C ro
ri e
 low ered
 ste pping
 Jack ie
 teacher s
 cowb oy
 T oys
D r
 in ches
 envel opes
ear s
 ch ar
 V room
 explore r
 ant icip
 play d
 Re ady
 R uff
 R alph
un ity
N ice
Fin n
oo sh
 B ad
 knock ing
 floor s
 effort s
 con cer
 uniform s
l ied
 aw are
en ing
 foot prints
Some one
 near ly
 P l
 F iona
ll as
b it
 R ia
iv i
 wh imp
 tr ot
 gl itt
 appreci ation
 s ens
 ne cks
 coll ap
 che cks
la ppy
 la pt
 ex cept
 pl ug
 ch arge
 Jack y
 flutter ing
 umbre llas
ac y
 sandcast les
 Dave y
 stat ues
 H oney
isc uit
J e
H oppy
 shr ank
 Am elia
r ily
 stamp ed
 pri ck
 add s
 stro ll
 hunt ers
 dod ged
 chocol ates
 passen gers
 germ s
og er
om b
 wr igg
 apr ons
 ais le
 set s
 G erry
 we eds
 novel s
 demand ing
 T aking
 scratch ing
 meow s
iss a
 nur ses
L ucky
.' "
 mind ing
 drive way
 discuss ing
ur render
 k illed
 C ari
 bec omes
m pt
 tool box
 lapt op
 ha ird
 El iz
 att ack
 Sad ie
 D espite
Spe edy
R a
 disobe y
 scamp ered
 bounce s
 supp lied
 spray s
 de ed
so l
 te mpt
 friendship s
 burn s
Co co
 sl apping
 clos ing
 invit es
 cott on
 belong ings
 anticip ation
M o
A rrr
 for m
 er ase
 St an
 twist s
 r ays
 snugg le
 forgive s
 model s
 sh all
 mass ages
 hum ming
on nie
 respond ed
 new found
 G l
 ghost s
 ex pecting
 She lly
 che ated
Do es
 Woo ly
G igi
ott e
 travel ing
 con s
 co nd
 bat tle
 al though
 po sit
allow een
 mom mies
 invit ations
 car ries
 a im
ar row
 present ed
 tw enty
 r owed
 B umpy
ot s
 squ ir
B r
he l
arl otte
 fox es
 fin al
 duck ling
 ca fe
 B ibi
P ip
 marshmallow s
 J on
 cl icked
 Z ipper
 jet s
 des igning
f ive
 M uffin
 H alloween
 mug s
 Who ever
ak er
 dr own
 Al though
 tri cycle
 opp os
 c oral
 R uth
 Ex cited
i ens
 C le
in ted
 scoop s
 P op
 Mad die
Sad ly
 â 
 travel s
 al iens
 test s
 question ed
 Spe ed
c ted
 strip s
 cra ft
N ear
at ty
M ouse
 de fe
 Fl utter
cover ed
 Bu bba
om p
ir i
 fight s
ro ken
B all
 oppos ite
 Big gy
F ind
E lly
Ch loe
or se
 r out
 grand father
 encount ered
 N ever
 F e
l at
 dec l
 aff ord
s in
 ra ising
 up side
 V ivi
Me anwhile
J ess
 fl ashed
 calm ly
 R ita
 yaw ning
 since re
 real izes
atur day
Tr ust
Ch oo
 cryst als
 b uddy
 Sam antha
 cup cakes
 buck led
by es
B oth
 win ners
 def in
r is
' ,
 weap ons
 ca w
sh adow
Jo sh
 pack ages
 che at
 S aturday
o or
 sa cks
 mes ses
 good byes
 co ach
 att em
qu et
im ent
 Tr uck
 dri ft
 M ina
 E va
em ies
 en emies
ash a
 yumm iest
 scr ub
 sw allow
 return ing
ri an
 admir ation
 Sof ty
 Me gan
S ince
 spr out
 Lou ise
on se
 una ble
 Play ing
 An other
ugg ing
b age
 sad der
 freez ing
 bright est
 b less
x a
 M an
re verse
 resp onse
 co sy
 O h
 Y awn
 diamond s
 br ide
st alk
 re app
 opp ort
 hon king
 gar bage
er k
 whisper ing
 stret ches
 prevent ed
ant astic
 who ever
 o dd
 aw ful
 G ray
al th
 weigh s
 journey s
 cap s
 aw oke
p iece
B rrr
 trap s
 spice s
 dragon fly
c ie
 b orn
 reass ured
 cl ip
o ff
iv ia
 st all
 bean stalk
 arg um
 defin itely
 beet les
 automobile s
 M aisy
ook s
m ine
ic i
 visit ors
 stuff ing
 playd ate
 was hes
b roken
H op
 wis er
 custom er
em ma
R achel
P r
 trave lling
 Sof ia
 Jo lly
 Fl op
ou quet
 haird ress
 b ouquet
 N urse
, '
 t umbled
 decor ation
 camp fire
 E lle
f o
ch y
 honest y
 bu d
On ly
 b omb
 welc oming
 offer ing
 O t
 we alth
 occ as
 J ax
 He llo
 trouble s
 loud est
 insp ired
y l
 ty pe
 par ted
 gro an
 Ch ick
 Nut ty
ir ac
 wh ales
 Th under
 R icky
v y
 decl ared
 correct ly
y ler
ook y
f us
 beak s
 Quack y
ath an
 cle ared
up er
 cowb oys
 nuzz led
 Dot ty
 pri zes
 ex ch
Fin ny
 warm ly
 Miss ile
 re wards
 obey ed
 custom ers
Sh ould
B o
 siren s
 comfort ing
 F el
sh aped
 F lappy
m atch
 town s
 M agic
 B ingo
elie ve
 re ly
 V icky
rom ise
H oney
 tr igger
 own s
 f antastic
 bend s
 spo iling
 hairdress er
 surrender ed
 support ing
 share s
 po ses
 p ipes
 clean s
ren ch
S un
Out side
Jul ie
 wr inkled
 C ook
 cho pped
 recor der
 mo ons
 beam ing
un es
ell ow
B eth
 than king
 snow y
 Wo lf
 sc urry
 exper ien
 enjoy able
 act ive
 P iggy
on m
c he
 doll ar
 K evin
w orm
el ope
 lo c
 stream ers
 B ub
ud ged
 Pat ty
 M other
bell e
 Z ack
Su zy
 ex amp
 short s
 shoo ed
T ree
c at
 sc ent
 bru ises
ust er
 L uc
 his ses
 steer ing
 sel f
 pl ugged
 Els a
at itude
 warri or
 visit s
 exerc ises
vin ced
sc reen
ir l
ap tain
 dan gers
 cudd les
 R el
at ive
 un fortunately
 squ ished
 s igning
 I m
 L ight
be e
R ay
 pilot s
 disappoin t
m unk
 gr atitude
 applaud ing
 prov iding
 M oppy
al f
 tick les
G row
 storm s
 night s
 ju d
 con vinced
 bad ger
 Els ie
 you n
 respons ib
 choo sing
 K elly
J oy
 youn gest
 neare st
 bra ins
 activ ity
ing er
A bby
 explo ded
 coug hed
 arr anged
C laire
 reward ing
 F ly
g ood
 sun screen
 pe ep
 Flo ppy
 Tweet y
 S weet
 K aty
 Jo an
 S al
il ities
 annoy ing
 soap y
  ill
me ow
S plash
G r
 rail s
 lace s
 thread s
 ta pping
 off ic
 appreci ated
 P ine
 M in
 t i
 Ph il
 we ighing
 heart broken
 emer ged
 det ail
 P ick
D anger
 S il
 t in
 crocodile s
 cl erk
bo ards
 scr am
 attem pt
 N ancy
Ah oy
 sn ug
 mess ed
 examp le
 d ial
 K ay
 A ny
s n
Mom ma
 hook s
 ho ver
 J onny
 top s
 chip munk
 so ot
 guard ing
 bat hed
 manag er
 bo nd
 T ippy
ort unately
 Mic roscope
F riends
et ah
Snow y
 master piece
 tip s
 fin ishes
 f et
 comm on
 Tom orrow
mb ers
H mm
 trot ted
 ni bbled
 me mbers
 dig s
r f
Pe ople
 kind er
 che etah
 chew s
ir cle
 rip s
 bea st
L izzy
 argum ent
 fa ith
 Help ing
 earn ed
An ne
 obser ving
 forgiven ess
 Jo ke
 C ici
chie vous
 in stantly
 fis hes
 experien ced
 cur l
 che aper
 J umpy
Ros ie
 mis chievous
 gener osity
 c ages
 Tw ist
 meow ing
 fo am
m ered
C indy
 store s
f u
etch up
 matter ed
 grand d
 te les
 p asses
 l imp
 A g
S que
 sleep s
io let
 breath s
ord inary
et tle
 r in
 gasp s
 Fred die
end ing
G ot
 r umbling
 hat ch
 Mom ma
 tr ans
 grass ho
 accompl ished
 Ho pper
ac ing
 th ump
 teles cope
 str um
 smart est
 mat s
 wh ined
 mo at
l ike
b u
G ina
 scram bled
 j ugg
 farm ers
 I ce
 dri p
a ven
Rob bie
 sy rup
 garden s
 collap sed
 ang rily
 M ore
ide y
cou raged
B aa
 ve gg
 sty les
 forest s
 experience s
 discover ies
ho le
 med als
 aff ect
 P in
 ty pes
 otter s
 mean ing
 con qu
 Do es
p it
 sna pping
 hard est
 f if
d i
 move ments
 f aint
 ch illy
 bubb ly
P inky
 vest s
 unf air
 express ion
o d
When ever
 tooth brush
 score s
 extra ordinary
c ad
N ever
 att itude
 vi br
 hor ri
 blue bird
 Mon key
m el
ll s
 sur v
 spear s
 k etchup
 B erry
 soon er
 grassho pper
 behavi our
M other
 pat ches
 ha bit
er ts
K aren
 poke s
 mom ma
 af ar
 Ash ley
ie ves
J acob
 thick er
 sc ri
 F riend
r ob
 squee zes
 slither ed
 shr unk
 cour t
 class mates
 T erry
  icky
 prick ly
 glitter ing
 exp ert
 A r
b ling
 to pp
 kneel ing
 ann ounced
 R iri
ell ing
 pea co
 mark ing
x p
am ma
ct ric
 cost s
 S uper
 C ally
 A choo
 zigzag s
 water mel
 to r
 th ieves
 sk irts
 jump er
 h ood
 act s
 Z og
 A pp
 wo lves
 Sw im
 Cl oud
P apa
 thumb s
 sque aky
 coc oon
 wood cut
 bo ards
 Eliz a
 Be cky
id ence
 ser vant
aff le
 che ating
 J ason
 tr ading
 ra king
J essie
 E ric
ri ck
 tid ied
 b iscuit
 B a
 lunch time
 luck ily
an ced
Fr og
 P uffy
 A c
 spill ing
r or
 D ay
n f
F ire
 trans form
 dess erts
 U se
 Mad dy
 Dan iel
 An imal
 peaco ck
 P ig
 M ine
 St ill
 G ill
 m irac
 C aptain
w ar
id y
 windows ill
 ch ill
 be ating
 T ammy
 L ung
 G illy
 see king
 a st
 a ctor
 Rain bow
 L ina
s se
 Will iam
m o
 M ath
pr il
A ny
 fore shadow
ac les
Blue y
 lean s
 St ep
 H i
F reeze
B ounce
 watermel on
 his sing
 fl ashing
 de v
 cloth s
 T iger
 Mon ster
 Frank ie
p op
 wind ing
 posit ive
 dis couraged
 W il
 woodcut ter
 for ts
 dri pped
 compet e
 tea pot
 press ing
 disagree ing
 T re
ick ing
 gl immering
 vegg ies
 trust s
 tidy ing
 kangaroo s
 Pe ep
 temp ted
 land ing
 fun n
 Fl ora
it s
 do ck
 sh allow
 for med
l ers
 r ack
 over w
 f ade
 To oth
f lowers
 ele ctric
 cop s
el ing
Not hing
 apolog y
cream s
 wor st
 sled s
 Sil ver
 L ife
up id
 comet s
Ow l
 Sh ark
 M ag
 J elly
B ug
 situ ations
 p apa
 offic ers
  4
R ain
 sle e
 R oger
 Ch arlotte
ay e
 sun s
 zip s
 structure s
 scurry ing
 pizz as
 overw hel
 mill er
 as s
 But ter
â ,
 grandd aughter
 f oggy
 d ing
 Ol ivia
 H urry
 Am ber
er ing
Z oe
 Jane y
 web s
 deser ved
Ra bbit
 opport unity
 cub s
 Y ummy
 Sp idey
 S asha
 Mix ie
 B uster
 sn orted
 difference s
 Go ld
sn ap
in c
 quack ing
 T ell
if ully
end ed
F ifi
 sa v
 he aven
 Bird s
 lever s
 inch worm
o f
c ar
 appro ach
 T yler
 seagull s
 ri bbit
 po sse
 cooper ate
 Ru fus
 Fel ix
 B oom
wel come
rag on
?â .
 po se
st orm
and ra
 disappoint ment
 Sm oke
oc ular
 speak s
 sneak s
s ers
 bin ocular
 art work
 surf ed
 sc owl
 answer ing
 Sn ake
 M ae
 short cut
B a
 si pped
 rob in
 Gra nd
Cl imb
 ar rest
 In ky
ss y
 unwra pped
 re un
 am used
 Am anda
ug ar
 repe ats
 pepper oni
 appl ause
 key hole
 check out
 ch in
 C ars
L ia
De al
 visit or
 stri king
 puppet s
 padd ling
ta cked
E at
 un z
 cro aked
 at tacked
 C ircle
 B rian
ors ie
 sp ooky
 Ot to
 G us
E ach
 groan ed
 beaut ifully
 Je an
il i
g ar
cident s
 swimsuit s
 cons ider
 check ing
 Y ellow
j est
 water s
 g room
 Sque ak
 Sl inky
y le
o ot
L uke
 net s
 exam s
  ind
ot ion
b ecca
 dry ing
 Re becca
u ses
an ish
ag ine
 shrug s
 l ump
 Aunt ie
s ie
 so bbing
 shy ly
 shoot s
 honk s
 heel s
 cheer fully
 S ince
h ny
es ses
 sh h
 whimp ered
 health ier
 hang s
ic ious
M ilo
 M us
 caterpill ars
izz es
Slow ly
 squ inted
 magnif ying
 f ries
 R atty
 bl amed
 F ind
ulp ture
om i
 sc ulpture
 frustr ation
 T ip
ou ched
ch ing
 sh immering
 Pen elope
 po ss
 Pe ace
l t
Sh aring
 s uck
 number ed
 ni bble
 ba a
 W affle
oth y
ell ie
am il
 flow ing
hing s
Pe pper
 ra ked
 gr umbled
 O ff
th at
Bu bbles
 build er
ra cted
il s
e my
 sway ing
 pet ting
 gu ards
 fa cing
 Woo lly
se y
 sprink le
 myster ies
 detail s
 H ar
 sn ort
 posse ssion
 en emy
 L i
 Bo at
 texture s
 table t
 good ies
 R ub
 C urious
 B arry
Y esterday
 w ig
 po pping
 flo ck
 wild flowers
 stack s
 mar ve
 fan s
 cr ops
 count ries
 Gra cie
 B aa
u is
h ow
e at
 knob s
 Tess a
 See ing
 loc al
 bush y
 ste w
 peep ed
 hunt ing
 drown ed
 bow ing
 binocular s
 ang rier
 Bub u
 map s
 M atch
 D i
 qu izzes
 n iece
 moon light
 G low
 outfit s
 John son
 De al
S pr
O O
 wh oosh
 weak er
 w rench
 mind ful
 crow ded
cy cles
 end ings
 Bee f
S qu
 proper ty
 hesit ation
 fl ashes
amil iar
 un less
 imagination s
 fo nd
 car ts
 ab ility
 O xy
 And rew
get ic
 gl ared
 R ight
 Ac cidents
l or
et s
 unf amiliar
 space s
 mic row
 kn it
 in ter
 ha ven
 fold s
th s
s aw
o ll
T una
J u
 responsib ility
 dirt ier
b ank
 p ouch
 microw ave
 desk s
â ¦
r ough
ib ly
B less
 crack er
rn ie
 sw apped
 mem ber
 d ate
 ast on
 O xygen
 R avi
W ant
C ra
 wh ine
 soft ened
 re bu
 door step
 disappear ing
 Pe ggy
 Hel en
 quack s
 n atur
 R ing
 Ch ip
sc ar
 writ er
 listen er
 T ra
 T oo
 F ix
 pri v
 bl ushed
 Sp icy
ven ir
ing le
 palm s
 not icing
 Jen n
re pe
po ison
ing ly
M on
 sou venir
 P ast
repe at
 law s
 dis aster
 conn ect
 R es
 G abby
end ant
Rob by
 ph ones
 in vent
al a
A va
 conf idence
 Co al
e ze
 tim id
 stir s
 overwhel med
Be ing
 may or
 fl ick
 C ut
gu ess
as mine
 t ugging
 P retty
 Mo le
ic ate
 unt angle
 satis fa
 s us
 owl s
 mail ing
 inj ured
Wh ose
 satisfa ction
 Wh ite
 Im mediately
F ly
 Mar ch
 Animal s
m ers
M ittens
 l im
 E at
th is
M abel
 pr ank
 N ora
 B onnie
W iggly
C he
 hoo ves
 Tri angle
 R un
 P ot
 Mel issa
w ell
Je ff
 fix er
 St artled
 S ir
 Cle an
 Cl ose
n ow
 sn ar
 cl ut
Ex cited
 sk ies
 instrum ent
 Tr ucky
 B ea
l ish
 Mat ilda
 H orsie
 F aye
ad ually
 disag re
 B ooks
 wrigg led
 stain s
 rin se
 pe cks
 cre ak
 Sleep y
al ing
S usan
 sh ave
 bump ing
 I cy
 Hel i
 Cra bby
w are
ul f
S w
 swir l
 r uff
 bend ing
to ise
cess ary
Play ing
I m
Cl ose
 sand pit
 explor ation
 chat ted
 Sc issors
ik y
M ake
 rod s
 fact s
 attach ing
ee k
 fool ed
 bur ger
 B ro
 glow s
 concer ned
 clear ly
May a
 sal on
 rever sing
 la va
 comp an
 certain ly
 C andy
er g
W ally
 sm elt
 motor cycles
 fet ched
 cir c
 B ert
el s
 tr oll
 t unes
 somet ime
 pro d
 old est
 firef lies
 kiss ing
 challen ges
 blo nde
K ayla
 warm ed
 L a
 Bob bie
bb ling
 unlock ing
 natur al
 different ly
 b ound
 L ots
urp le
T ara
D ino
 river bank
 det ect
 cut ter
 cup cake
 conqu ered
R ing
 hat es
 bo il
 all ey
 Fl ap
s orry
 swir ls
 send s
 real ise
 O pen
 Flop sy
Jul ia
Is n
 wigg ling
 sens ation
 m unched
 bang ing
 C ammy
c ent
H ope
 topp ings
 hipp os
 f ist
 cl ips
 Rel iable
Do ctor
 sway ed
 st ings
 ro be
 mirac le
 ha lves
 br akes
 Green y
F ish
 surv ive
 ostri ches
 P ink
 Cl imb
ul a
keep ers
M ichael
 other wise
 em bra
 cr ushed
 bubb ling
 L y
le st
 tent s
 Wo nder
 Look ing
m mm
an i
 repair ing
 O f
 vine gar
 stretch y
 rubb ish
 liz ards
 W orking
 Flick er
 passen ger
M any
 vibr ant
 tor toise
 p ounced
 Wh ich
Su zie
 scen e
 Gr ump
w a
 moo ed
 gl ided
 desper ately
re g
ber t
 sn ip
 p oop
 ma jest
 int ently
 cop ied
 calm er
 Sunday s
 P er
 Light ning
ra p
n et
 wo ken
 tw el
 rag s
 jud ges
 joy fully
 coo lest
sm elling
e ou
 lecture s
 Jo dy
 E d
ly n
is ible
 h ips
 cous ins
 aston ished
 cap es
 R h
 Out side
un o
Ew w
 success fully
 speak er
 reun ited
 inv isible
 gu esses
 goo ey
 arri ves
wh y
 twel ve
 bat s
ur ity
Mike y
 good ness
 comput ers
 chat ting
 Carl a
m ie
are t
 stack ing
 snowfl ake
ist ory
 reapp eared
 ra cer
 pound s
 park s
 desper ate
 compan ion
 comm un
r ate
o ver
Z igzag
 luck iest
 le vel
 d ou
 an k
 ta le
 stomach s
 sell s
 g all
 d umb
 cricket s
 S ugar
igg les
N ick
 wind s
 g ates
 disobey ed
 disagre ement
 Ste ven
h ile
ara ble
O l
M ore
 pearl s
 ho ses
 cr isp
 aw hile
 W hee
it es
L ou
 so da
 pops ic
 loyal ty
 Or ange
L inda
 tong ues
 Ros a
 rid er
 C D
O oh
N e
 Bl ack
re nt
p an
 sure ly
 ab o
 L aw
 Anna belle
r w
col ored
 occas ion
 bu nd
izz a
d og
c in
 st un
 guit ars
 chick s
ch ief
 separ ating
 seas he
 rebu ild
 intellig ence
 alligator s
 abo ard
 Ra ven
 I ron
 A pril
ed ic
F ound
 cro ak
 cre ep
 W inky
 V iolet
Somet hing
C atch
 learn er
 caut ion
 c uc
 O ld
 C are
 B un
sol ut
r in
 wh ines
 sp iky
 reveal ing
 esc ap
 U ni
w orking
r um
aid s
 tick ling
 S ettle
 gl obe
 cr ouched
 R oar
 C oby
!' .
 pr og
 bloom s
 appear ance
 F le
 ' '
ur ricane
st op
se ph
if er
f ived
J an
 stroke s
 que st
 le aking
 hat ched
 guard ian
 So cky
d es
arn ing
 zoo keepers
 t ant
 rout ine
 persist ence
 do ves
ck er
Sn ap
S leep
Ch icky
 tap s
 squ ashes
 qu ilt
 pain ful
 light ing
 bl ame
 adm it
T oys
Ah h
 tempt ing
 sh attered
 ri pp
 mo ld
 deep ly
 P uff
gg les
Th ree
R alph
Mat t
 thr one
 squir ted
 sec urity
 peek s
 electric ity
 cent re
 bur gers
em on
 real izing
 cook s
 allow ing
 L iam
us hes
ort h
Jess ica
 l ar
 exch ange
 cho pping
 M a
e v
Sh are
S ophia
 sweet ly
 R ace
 Quick ly
 A lf
te en
ins ed
 sweet er
 r insed
 glitt ered
is app
Z ero
 melt s
 mel ody
 go ggles
 fu rious
 ener getic
 defe ated
 build ers
as y
S m
 wa ded
 tant rum
 sniff led
 choo ses
 Other wise
 H or
 Cat s
 C omet
 contain er
 compet ing
 G iant
re my
b ang
! â
 M ila
ar ted
 und one
 serious ly
 protect ion
 lar ger
 l ull
 h udd
 attempt s
 R ara
 P ark
 D uke
Sh oo
L izzie
 toss ing
 helicopter s
 coo ed
 cl uck
 buck les
 Wh ale
 Pin chy
 C her
S weet
 T ears
 Sm o
 Sh arp
 O ver
solut ely
St ill
Sque aky
 hum med
 Mar tin
 D in
Mad dy
Every thing
C urious
 ra cers
 patient s
 mu ster
 go d
 deser ves
 al oud
 T hings
k a
U se
 D ragon
 tour s
 meet s
 mar vel
 R usty
 Liz a
 J et
Fr oggy
 wra pper
 R eddy
 L and
 H ops
 Cr usty
 wh iskers
 nice st
 impro ving
 bo oth
ap s
S urrender
Ro cky
 meadow s
 imag inary
 con cent
 bo ld
 St arry
Tw inkle
!' "
 ob st
 bl ades
 S ummer
 Pe bby
" !
 stro lled
 risk y
 pair s
 op t
 cr uel
u in
 peel s
M ina
J une
